{
  "version": "1.0",
  "truncation": null,
  "padding": null,
  "added_tokens": [
    {
      "id": 0,
      "content": "<unk>",
      "single_word": false,
      "lstrip": false,
      "rstrip": false,
      "normalized": false,
      "special": true
    },
    {
      "id": 1,
      "content": "<pad>",
      "single_word": false,
      "lstrip": false,
      "rstrip": false,
      "normalized": false,
      "special": true
    },
    {
      "id": 2,
      "content": "<eos>",
      "single_word": false,
      "lstrip": false,
      "rstrip": false,
      "normalized": false,
      "special": true
    },
    {
      "id": 3,
      "content": "<bos>",
      "single_word": false,
      "lstrip": false,
      "rstrip": false,
      "normalized": false,
      "special": true
    }
  ],
  "normalizer": null,
  "pre_tokenizer": {
    "type": "Whitespace"
  },
  "post_processor": {
    "type": "TemplateProcessing",
    "single": [
      {
        "SpecialToken": {
          "id": "<bos>",
          "type_id": 0
        }
      },
      {
        "Sequence": {
          "id": "A",
          "type_id": 0
        }
      },
      {
        "SpecialToken": {
          "id": "<eos>",
          "type_id": 0
        }
      }
    ],
    "pair": [
      {
        "Sequence": {
          "id": "A",
          "type_id": 0
        }
      },
      {
        "Sequence": {
          "id": "B",
          "type_id": 1
        }
      }
    ],
    "special_tokens": {
      "<bos>": {
        "id": "<bos>",
        "ids": [
          3
        ],
        "tokens": [
          "<bos>"
        ]
      },
      "<eos>": {
        "id": "<eos>",
        "ids": [
          2
        ],
        "tokens": [
          "<eos>"
        ]
      }
    }
  },
  "decoder": null,
  "model": {
    "type": "WordPiece",
    "unk_token": "<unk>",
    "continuing_subword_prefix": "ħ",
    "max_input_chars_per_word": 100,
    "vocab": {
      "<unk>": 0,
      "<pad>": 1,
      "<eos>": 2,
      "<bos>": 3,
      "!": 4,
      "\"": 5,
      "#": 6,
      "$": 7,
      "%": 8,
      "&": 9,
      "'": 10,
      "(": 11,
      ")": 12,
      "*": 13,
      "+": 14,
      ",": 15,
      "-": 16,
      ".": 17,
      "/": 18,
      "0": 19,
      "1": 20,
      "2": 21,
      "3": 22,
      "4": 23,
      "5": 24,
      "6": 25,
      "7": 26,
      "8": 27,
      "9": 28,
      ":": 29,
      ";": 30,
      "<": 31,
      "=": 32,
      ">": 33,
      "?": 34,
      "@": 35,
      "A": 36,
      "B": 37,
      "C": 38,
      "D": 39,
      "E": 40,
      "F": 41,
      "G": 42,
      "H": 43,
      "I": 44,
      "J": 45,
      "K": 46,
      "L": 47,
      "M": 48,
      "N": 49,
      "O": 50,
      "P": 51,
      "Q": 52,
      "R": 53,
      "S": 54,
      "T": 55,
      "U": 56,
      "V": 57,
      "W": 58,
      "X": 59,
      "Y": 60,
      "Z": 61,
      "[": 62,
      "\\": 63,
      "]": 64,
      "^": 65,
      "_": 66,
      "`": 67,
      "a": 68,
      "b": 69,
      "c": 70,
      "d": 71,
      "e": 72,
      "f": 73,
      "g": 74,
      "h": 75,
      "i": 76,
      "j": 77,
      "k": 78,
      "l": 79,
      "m": 80,
      "n": 81,
      "o": 82,
      "p": 83,
      "q": 84,
      "r": 85,
      "s": 86,
      "t": 87,
      "u": 88,
      "v": 89,
      "w": 90,
      "x": 91,
      "y": 92,
      "z": 93,
      "|": 94,
      "}": 95,
      "~": 96,
      "": 97,
      "": 98,
      "¡": 99,
      "¢": 100,
      "£": 101,
      "¥": 102,
      "§": 103,
      "°": 104,
      "±": 105,
      "²": 106,
      "³": 107,
      "´": 108,
      "µ": 109,
      "·": 110,
      "º": 111,
      "½": 112,
      "¿": 113,
      "Á": 114,
      "Ä": 115,
      "Å": 116,
      "Æ": 117,
      "Ç": 118,
      "É": 119,
      "Í": 120,
      "Î": 121,
      "Ñ": 122,
      "Ó": 123,
      "Ö": 124,
      "×": 125,
      "Ø": 126,
      "Ú": 127,
      "Ü": 128,
      "Þ": 129,
      "ß": 130,
      "à": 131,
      "á": 132,
      "â": 133,
      "ã": 134,
      "ä": 135,
      "å": 136,
      "æ": 137,
      "ç": 138,
      "è": 139,
      "é": 140,
      "ê": 141,
      "ë": 142,
      "ì": 143,
      "í": 144,
      "î": 145,
      "ï": 146,
      "ð": 147,
      "ñ": 148,
      "ò": 149,
      "ó": 150,
      "ô": 151,
      "ö": 152,
      "ø": 153,
      "ù": 154,
      "ú": 155,
      "û": 156,
      "ü": 157,
      "ý": 158,
      "þ": 159,
      "Ā": 160,
      "ā": 161,
      "ă": 162,
      "ą": 163,
      "ć": 164,
      "Č": 165,
      "č": 166,
      "Đ": 167,
      "đ": 168,
      "Ē": 169,
      "ē": 170,
      "Ĕ": 171,
      "ĕ": 172,
      "ė": 173,
      "ę": 174,
      "ğ": 175,
      "ħ": 176,
      "ī": 177,
      "İ": 178,
      "ı": 179,
      "Ľ": 180,
      "Ł": 181,
      "ł": 182,
      "ń": 183,
      "Ō": 184,
      "ō": 185,
      "œ": 186,
      "ř": 187,
      "Ś": 188,
      "ś": 189,
      "Ş": 190,
      "ş": 191,
      "Š": 192,
      "š": 193,
      "ţ": 194,
      "ũ": 195,
      "ū": 196,
      "ů": 197,
      "ų": 198,
      "ź": 199,
      "Ż": 200,
      "ż": 201,
      "Ž": 202,
      "ž": 203,
      "ơ": 204,
      "ư": 205,
      "ǎ": 206,
      "ǔ": 207,
      "Ș": 208,
      "ș": 209,
      "ț": 210,
      "ȯ": 211,
      "ɐ": 212,
      "ɑ": 213,
      "ɒ": 214,
      "ɔ": 215,
      "ə": 216,
      "ɛ": 217,
      "ɜ": 218,
      "ɡ": 219,
      "ɢ": 220,
      "ɪ": 221,
      "ɫ": 222,
      "ɳ": 223,
      "ɽ": 224,
      "ɾ": 225,
      "ʁ": 226,
      "ʃ": 227,
      "ʊ": 228,
      "ʋ": 229,
      "ʒ": 230,
      "ʔ": 231,
      "ʕ": 232,
      "ʲ": 233,
      "ʻ": 234,
      "ʼ": 235,
      "ʾ": 236,
      "ʿ": 237,
      "ˈ": 238,
      "ˌ": 239,
      "ː": 240,
      "́": 241,
      "̃": 242,
      "̍": 243,
      "̥": 244,
      "̯": 245,
      "͍": 246,
      "Α": 247,
      "Δ": 248,
      "Κ": 249,
      "Ν": 250,
      "Π": 251,
      "Τ": 252,
      "Φ": 253,
      "Χ": 254,
      "Ω": 255,
      "ά": 256,
      "έ": 257,
      "ή": 258,
      "ί": 259,
      "α": 260,
      "β": 261,
      "γ": 262,
      "δ": 263,
      "ε": 264,
      "η": 265,
      "θ": 266,
      "ι": 267,
      "κ": 268,
      "λ": 269,
      "μ": 270,
      "ν": 271,
      "ξ": 272,
      "ο": 273,
      "π": 274,
      "ρ": 275,
      "ς": 276,
      "σ": 277,
      "τ": 278,
      "υ": 279,
      "χ": 280,
      "ψ": 281,
      "ω": 282,
      "ό": 283,
      "ύ": 284,
      "ώ": 285,
      "А": 286,
      "Б": 287,
      "В": 288,
      "Г": 289,
      "К": 290,
      "П": 291,
      "Р": 292,
      "С": 293,
      "У": 294,
      "Х": 295,
      "Я": 296,
      "а": 297,
      "в": 298,
      "г": 299,
      "д": 300,
      "е": 301,
      "ж": 302,
      "з": 303,
      "и": 304,
      "й": 305,
      "к": 306,
      "л": 307,
      "м": 308,
      "н": 309,
      "о": 310,
      "п": 311,
      "р": 312,
      "с": 313,
      "т": 314,
      "у": 315,
      "х": 316,
      "ц": 317,
      "ш": 318,
      "ъ": 319,
      "ы": 320,
      "ь": 321,
      "ю": 322,
      "я": 323,
      "є": 324,
      "ֵ": 325,
      "ֶ": 326,
      "ָ": 327,
      "ֹ": 328,
      "ּ": 329,
      "א": 330,
      "ב": 331,
      "ג": 332,
      "ה": 333,
      "ו": 334,
      "ז": 335,
      "ח": 336,
      "י": 337,
      "ל": 338,
      "ם": 339,
      "מ": 340,
      "ן": 341,
      "נ": 342,
      "ס": 343,
      "ף": 344,
      "פ": 345,
      "צ": 346,
      "ר": 347,
      "ש": 348,
      "ת": 349,
      "ء": 350,
      "أ": 351,
      "إ": 352,
      "ا": 353,
      "ب": 354,
      "ة": 355,
      "ت": 356,
      "ث": 357,
      "ج": 358,
      "ح": 359,
      "خ": 360,
      "د": 361,
      "ذ": 362,
      "ر": 363,
      "س": 364,
      "ش": 365,
      "ص": 366,
      "ع": 367,
      "ف": 368,
      "ق": 369,
      "ك": 370,
      "ل": 371,
      "م": 372,
      "ن": 373,
      "ه": 374,
      "و": 375,
      "ي": 376,
      "ܐ": 377,
      "ܕ": 378,
      "ܗ": 379,
      "ܝ": 380,
      "ܠ": 381,
      "ܢ": 382,
      "ܬ": 383,
      "ܲ": 384,
      "ܵ": 385,
      "ं": 386,
      "अ": 387,
      "ई": 388,
      "क": 389,
      "ग": 390,
      "ण": 391,
      "त": 392,
      "द": 393,
      "न": 394,
      "प": 395,
      "ब": 396,
      "म": 397,
      "य": 398,
      "र": 399,
      "ल": 400,
      "व": 401,
      "स": 402,
      "ह": 403,
      "ा": 404,
      "ि": 405,
      "ु": 406,
      "ू": 407,
      "े": 408,
      "ै": 409,
      "्": 410,
      "আ": 411,
      "ল": 412,
      "হ": 413,
      "া": 414,
      "্": 415,
      "ਅ": 416,
      "ਲ": 417,
      "ਹ": 418,
      "ਾ": 419,
      "ੁ": 420,
      "ੱ": 421,
      "അ": 422,
      "ള": 423,
      "ഹ": 424,
      "ാ": 425,
      "്": 426,
      "ก": 427,
      "ค": 428,
      "ง": 429,
      "ช": 430,
      "ซ": 431,
      "ญ": 432,
      "ฐ": 433,
      "ณ": 434,
      "ด": 435,
      "ต": 436,
      "น": 437,
      "บ": 438,
      "ป": 439,
      "พ": 440,
      "ภ": 441,
      "ม": 442,
      "ย": 443,
      "ร": 444,
      "ล": 445,
      "ว": 446,
      "ศ": 447,
      "ษ": 448,
      "ส": 449,
      "ห": 450,
      "อ": 451,
      "ฮ": 452,
      "ะ": 453,
      "ั": 454,
      "า": 455,
      "ิ": 456,
      "ี": 457,
      "ึ": 458,
      "เ": 459,
      "แ": 460,
      "ไ": 461,
      "็": 462,
      "่": 463,
      "้": 464,
      "๊": 465,
      "์": 466,
      "Ⴀ": 467,
      "Ⴂ": 468,
      "Ⴃ": 469,
      "Ⴈ": 470,
      "Ⴌ": 471,
      "Ⴕ": 472,
      "Ⴟ": 473,
      "ა": 474,
      "ბ": 475,
      "გ": 476,
      "დ": 477,
      "ე": 478,
      "ვ": 479,
      "ზ": 480,
      "თ": 481,
      "ი": 482,
      "კ": 483,
      "ლ": 484,
      "მ": 485,
      "ნ": 486,
      "ო": 487,
      "პ": 488,
      "ჟ": 489,
      "რ": 490,
      "ს": 491,
      "ტ": 492,
      "უ": 493,
      "ფ": 494,
      "ქ": 495,
      "ღ": 496,
      "ყ": 497,
      "შ": 498,
      "ჩ": 499,
      "ც": 500,
      "ძ": 501,
      "წ": 502,
      "ჭ": 503,
      "ხ": 504,
      "ჯ": 505,
      "ჰ": 506,
      "ჱ": 507,
      "ჲ": 508,
      "ჳ": 509,
      "ჴ": 510,
      "ჵ": 511,
      "ჶ": 512,
      "ჷ": 513,
      "ჸ": 514,
      "ჹ": 515,
      "ჺ": 516,
      "჻": 517,
      "ᵻ": 518,
      "ḍ": 519,
      "ḏ": 520,
      "Ḥ": 521,
      "ḥ": 522,
      "ḷ": 523,
      "ṃ": 524,
      "ṅ": 525,
      "ṇ": 526,
      "ṛ": 527,
      "ṣ": 528,
      "ṭ": 529,
      "ṯ": 530,
      "ạ": 531,
      "ả": 532,
      "ấ": 533,
      "ầ": 534,
      "ậ": 535,
      "ắ": 536,
      "ễ": 537,
      "ệ": 538,
      "ị": 539,
      "ọ": 540,
      "ỏ": 541,
      "ỗ": 542,
      "ộ": 543,
      "ớ": 544,
      "ứ": 545,
      "ử": 546,
      "ữ": 547,
      "ỳ": 548,
      "ỹ": 549,
      "ἀ": 550,
      "ἰ": 551,
      "ὀ": 552,
      "ὁ": 553,
      "ὑ": 554,
      "​": 555,
      "‐": 556,
      "‑": 557,
      "–": 558,
      "—": 559,
      "―": 560,
      "‘": 561,
      "’": 562,
      "“": 563,
      "”": 564,
      "„": 565,
      "†": 566,
      "‡": 567,
      "•": 568,
      "…": 569,
      "′": 570,
      "″": 571,
      "⁄": 572,
      "₣": 573,
      "₤": 574,
      "€": 575,
      "₹": 576,
      "⅓": 577,
      "⅔": 578,
      "→": 579,
      "−": 580,
      "≡": 581,
      "≤": 582,
      "①": 583,
      "☉": 584,
      "☫": 585,
      "♀": 586,
      "♭": 587,
      "♯": 588,
      "⚳": 589,
      "〈": 590,
      "〉": 591,
      "〜": 592,
      "あ": 593,
      "い": 594,
      "う": 595,
      "お": 596,
      "か": 597,
      "が": 598,
      "き": 599,
      "ぎ": 600,
      "く": 601,
      "ぐ": 602,
      "け": 603,
      "こ": 604,
      "ご": 605,
      "さ": 606,
      "し": 607,
      "す": 608,
      "ず": 609,
      "ぜ": 610,
      "た": 611,
      "だ": 612,
      "ち": 613,
      "っ": 614,
      "つ": 615,
      "と": 616,
      "な": 617,
      "に": 618,
      "の": 619,
      "は": 620,
      "ば": 621,
      "ひ": 622,
      "ふ": 623,
      "ほ": 624,
      "ま": 625,
      "み": 626,
      "め": 627,
      "も": 628,
      "ゃ": 629,
      "ゆ": 630,
      "ょ": 631,
      "ら": 632,
      "り": 633,
      "る": 634,
      "れ": 635,
      "わ": 636,
      "を": 637,
      "ん": 638,
      "ァ": 639,
      "ア": 640,
      "ィ": 641,
      "イ": 642,
      "ゥ": 643,
      "ェ": 644,
      "エ": 645,
      "ォ": 646,
      "オ": 647,
      "カ": 648,
      "ガ": 649,
      "キ": 650,
      "ク": 651,
      "グ": 652,
      "ゲ": 653,
      "コ": 654,
      "サ": 655,
      "シ": 656,
      "ジ": 657,
      "ス": 658,
      "ズ": 659,
      "セ": 660,
      "タ": 661,
      "ダ": 662,
      "チ": 663,
      "ッ": 664,
      "ツ": 665,
      "テ": 666,
      "デ": 667,
      "ト": 668,
      "ド": 669,
      "ナ": 670,
      "ニ": 671,
      "ネ": 672,
      "ノ": 673,
      "ハ": 674,
      "バ": 675,
      "パ": 676,
      "フ": 677,
      "ブ": 678,
      "プ": 679,
      "ヘ": 680,
      "ベ": 681,
      "マ": 682,
      "ミ": 683,
      "ム": 684,
      "モ": 685,
      "ャ": 686,
      "ュ": 687,
      "ョ": 688,
      "ラ": 689,
      "リ": 690,
      "ル": 691,
      "レ": 692,
      "ロ": 693,
      "ン": 694,
      "ヴ": 695,
      "・": 696,
      "ー": 697,
      "一": 698,
      "七": 699,
      "下": 700,
      "世": 701,
      "丙": 702,
      "中": 703,
      "主": 704,
      "乃": 705,
      "之": 706,
      "乙": 707,
      "九": 708,
      "二": 709,
      "云": 710,
      "人": 711,
      "今": 712,
      "付": 713,
      "作": 714,
      "侗": 715,
      "依": 716,
      "信": 717,
      "傳": 718,
      "儚": 719,
      "充": 720,
      "光": 721,
      "全": 722,
      "兵": 723,
      "其": 724,
      "具": 725,
      "円": 726,
      "再": 727,
      "出": 728,
      "判": 729,
      "前": 730,
      "剛": 731,
      "劇": 732,
      "劉": 733,
      "動": 734,
      "化": 735,
      "北": 736,
      "华": 737,
      "厂": 738,
      "去": 739,
      "古": 740,
      "可": 741,
      "台": 742,
      "史": 743,
      "同": 744,
      "名": 745,
      "君": 746,
      "吳": 747,
      "周": 748,
      "命": 749,
      "和": 750,
      "咲": 751,
      "善": 752,
      "四": 753,
      "國": 754,
      "園": 755,
      "圣": 756,
      "在": 757,
      "坂": 758,
      "堤": 759,
      "場": 760,
      "塘": 761,
      "夕": 762,
      "大": 763,
      "天": 764,
      "夫": 765,
      "女": 766,
      "妙": 767,
      "姚": 768,
      "子": 769,
      "孟": 770,
      "守": 771,
      "安": 772,
      "宋": 773,
      "完": 774,
      "宗": 775,
      "宝": 776,
      "宫": 777,
      "寝": 778,
      "寺": 779,
      "小": 780,
      "少": 781,
      "尾": 782,
      "山": 783,
      "岳": 784,
      "川": 785,
      "州": 786,
      "巳": 787,
      "市": 788,
      "師": 789,
      "平": 790,
      "广": 791,
      "庆": 792,
      "府": 793,
      "座": 794,
      "廬": 795,
      "建": 796,
      "式": 797,
      "張": 798,
      "彌": 799,
      "彩": 800,
      "彼": 801,
      "後": 802,
      "御": 803,
      "德": 804,
      "思": 805,
      "愛": 806,
      "憑": 807,
      "憶": 808,
      "應": 809,
      "懷": 810,
      "战": 811,
      "戦": 812,
      "扈": 813,
      "技": 814,
      "拉": 815,
      "拳": 816,
      "挑": 817,
      "揺": 818,
      "攻": 819,
      "放": 820,
      "政": 821,
      "散": 822,
      "斯": 823,
      "方": 824,
      "日": 825,
      "旦": 826,
      "旭": 827,
      "昌": 828,
      "明": 829,
      "星": 830,
      "春": 831,
      "晋": 832,
      "景": 833,
      "曦": 834,
      "月": 835,
      "望": 836,
      "未": 837,
      "本": 838,
      "李": 839,
      "村": 840,
      "杜": 841,
      "束": 842,
      "来": 843,
      "林": 844,
      "桜": 845,
      "梶": 846,
      "棘": 847,
      "椎": 848,
      "楊": 849,
      "楚": 850,
      "榮": 851,
      "橘": 852,
      "機": 853,
      "正": 854,
      "殻": 855,
      "殿": 856,
      "母": 857,
      "水": 858,
      "汉": 859,
      "沂": 860,
      "沙": 861,
      "河": 862,
      "泗": 863,
      "波": 864,
      "泣": 865,
      "洪": 866,
      "淹": 867,
      "清": 868,
      "湯": 869,
      "漢": 870,
      "澄": 871,
      "澤": 872,
      "火": 873,
      "灯": 874,
      "灵": 875,
      "灼": 876,
      "焼": 877,
      "熱": 878,
      "物": 879,
      "狐": 880,
      "狸": 881,
      "玄": 882,
      "王": 883,
      "玩": 884,
      "珂": 885,
      "珙": 886,
      "球": 887,
      "理": 888,
      "琦": 889,
      "琪": 890,
      "瓊": 891,
      "生": 892,
      "田": 893,
      "畢": 894,
      "番": 895,
      "瘡": 896,
      "白": 897,
      "皮": 898,
      "真": 899,
      "砲": 900,
      "礮": 901,
      "祈": 902,
      "神": 903,
      "祠": 904,
      "秋": 905,
      "空": 906,
      "立": 907,
      "精": 908,
      "約": 909,
      "絵": 910,
      "織": 911,
      "義": 912,
      "翠": 913,
      "者": 914,
      "耕": 915,
      "肖": 916,
      "胡": 917,
      "膀": 918,
      "臂": 919,
      "興": 920,
      "良": 921,
      "花": 922,
      "芳": 923,
      "芽": 924,
      "若": 925,
      "英": 926,
      "藕": 927,
      "藥": 928,
      "蘄": 929,
      "蘇": 930,
      "行": 931,
      "裁": 932,
      "規": 933,
      "覺": 934,
      "观": 935,
      "解": 936,
      "記": 937,
      "誓": 938,
      "誡": 939,
      "誰": 940,
      "謎": 941,
      "许": 942,
      "谭": 943,
      "豪": 944,
      "豫": 945,
      "費": 946,
      "贵": 947,
      "赤": 948,
      "趙": 949,
      "足": 950,
      "跡": 951,
      "転": 952,
      "辛": 953,
      "逆": 954,
      "遇": 955,
      "運": 956,
      "過": 957,
      "遠": 958,
      "選": 959,
      "邦": 960,
      "邱": 961,
      "部": 962,
      "郭": 963,
      "都": 964,
      "酈": 965,
      "里": 966,
      "野": 967,
      "金": 968,
      "銃": 969,
      "鋼": 970,
      "錄": 971,
      "錡": 972,
      "鍵": 973,
      "鐵": 974,
      "钱": 975,
      "铁": 976,
      "關": 977,
      "防": 978,
      "阿": 979,
      "陈": 980,
      "陳": 981,
      "陽": 982,
      "隊": 983,
      "階": 984,
      "集": 985,
      "雪": 986,
      "雲": 987,
      "霖": 988,
      "霹": 989,
      "靂": 990,
      "韓": 991,
      "願": 992,
      "顯": 993,
      "颜": 994,
      "马": 995,
      "高": 996,
      "龍": 997,
      "대": 998,
      "독": 999,
      "라": 1000,
      "립": 1001,
      "병": 1002,
      "보": 1003,
      "부": 1004,
      "알": 1005,
      "연": 1006,
      "제": 1007,
      "ﷲ": 1008,
      "ﻋ": 1009,
      "﻿": 1010,
      "／": 1011,
      "３": 1012,
      "～": 1013,
      "�": 1014,
      "ħr": 1015,
      "ħo": 1016,
      "ħt": 1017,
      "ħe": 1018,
      "ħc": 1019,
      "ħa": 1020,
      "ħl": 1021,
      "ħi": 1022,
      "ħs": 1023,
      "ħu": 1024,
      "ħn": 1025,
      "ħd": 1026,
      "ħy": 1027,
      "ħv": 1028,
      "ħg": 1029,
      "ħw": 1030,
      "ħm": 1031,
      "ħp": 1032,
      "ħb": 1033,
      "ħh": 1034,
      "ħz": 1035,
      "ħk": 1036,
      "ħf": 1037,
      "ħ0": 1038,
      "ħ2": 1039,
      "ħ8": 1040,
      "ħé": 1041,
      "ħ5": 1042,
      "ħ6": 1043,
      "ħ4": 1044,
      "ħị": 1045,
      "ħj": 1046,
      "ħZ": 1047,
      "ħq": 1048,
      "ħś": 1049,
      "ħö": 1050,
      "ħ1": 1051,
      "ħA": 1052,
      "ħの": 1053,
      "ħか": 1054,
      "ħな": 1055,
      "ħた": 1056,
      "ħ3": 1057,
      "ħ9": 1058,
      "ħç": 1059,
      "ħx": 1060,
      "ħB": 1061,
      "ħC": 1062,
      "ħL": 1063,
      "ħO": 1064,
      "ħè": 1065,
      "ħR": 1066,
      "ħE": 1067,
      "ħN": 1068,
      "ħ母": 1069,
      "ħ殿": 1070,
      "ħJ": 1071,
      "ħM": 1072,
      "ħT": 1073,
      "ħF": 1074,
      "ħā": 1075,
      "ħō": 1076,
      "ħř": 1077,
      "ħá": 1078,
      "ħI": 1079,
      "ħí": 1080,
      "ħć": 1081,
      "ħă": 1082,
      "ħG": 1083,
      "ħV": 1084,
      "ħP": 1085,
      "ħW": 1086,
      "ħH": 1087,
      "ħ7": 1088,
      "ħ星": 1089,
      "ħ漢": 1090,
      "ħü": 1091,
      "ħβ": 1092,
      "ħX": 1093,
      "ħU": 1094,
      "ħD": 1095,
      "ħわ": 1096,
      "ħい": 1097,
      "ħş": 1098,
      "ħń": 1099,
      "ħъ": 1100,
      "ħр": 1101,
      "ħк": 1102,
      "ħв": 1103,
      "ħа": 1104,
      "ħS": 1105,
      "ħē": 1106,
      "ħđ": 1107,
      "ħə": 1108,
      "ħˈ": 1109,
      "ħː": 1110,
      "ħY": 1111,
      "ħו": 1112,
      "ħפ": 1113,
      "ħנ": 1114,
      "ħה": 1115,
      "ħó": 1116,
      "ħʻ": 1117,
      "ħß": 1118,
      "ħô": 1119,
      "ħọ": 1120,
      "ħṅ": 1121,
      "ħī": 1122,
      "ħì": 1123,
      "ħø": 1124,
      "ħל": 1125,
      "ħź": 1126,
      "ħ乃": 1127,
      "ħს": 1128,
      "ħო": 1129,
      "ħმ": 1130,
      "ħთ": 1131,
      "ħა": 1132,
      "ħვ": 1133,
      "ħრ": 1134,
      "ħუ": 1135,
      "ħლ": 1136,
      "ħი": 1137,
      "ħ里": 1138,
      "ħä": 1139,
      "ħK": 1140,
      "ħֹ": 1141,
      "ħף": 1142,
      "ħل": 1143,
      "ħر": 1144,
      "ħو": 1145,
      "ħح": 1146,
      "ħł": 1147,
      "ħั": 1148,
      "ħล": 1149,
      "ħอ": 1150,
      "ħฮ": 1151,
      "ħи": 1152,
      "ħш": 1153,
      "ħн": 1154,
      "ħе": 1155,
      "ħц": 1156,
      "ħь": 1157,
      "ħй": 1158,
      "ħ殻": 1159,
      "ħ機": 1160,
      "ħ動": 1161,
      "ħ隊": 1162,
      "ħव": 1163,
      "ħा": 1164,
      "ħद": 1165,
      "ħว": 1166,
      "ħง": 1167,
      "ħพ": 1168,
      "ħิ": 1169,
      "ħไ": 1170,
      "ħช": 1171,
      "ħย": 1172,
      "ħา": 1173,
      "ħร": 1174,
      "ħี": 1175,
      "ħτ": 1176,
      "ħί": 1177,
      "ħμ": 1178,
      "ħι": 1179,
      "ħú": 1180,
      "ħα": 1181,
      "ħå": 1182,
      "ħɒ": 1183,
      "ħâ": 1184,
      "ħı": 1185,
      "ħɔ": 1186,
      "ħɡ": 1187,
      "ħʃ": 1188,
      "ħï": 1189,
      "ħレ": 1190,
      "ħッ": 1191,
      "ħチ": 1192,
      "ħ雪": 1193,
      "ħ礮": 1194,
      "ħ庆": 1195,
      "ħ河": 1196,
      "ħû": 1197,
      "ħ夕": 1198,
      "ħ焼": 1199,
      "ħけ": 1200,
      "ħέ": 1201,
      "ħν": 1202,
      "ħο": 1203,
      "ħつ": 1204,
      "ħぜ": 1205,
      "ħん": 1206,
      "ħо": 1207,
      "ħс": 1208,
      "ħп": 1209,
      "ħд": 1210,
      "ħ四": 1211,
      "ħ式": 1212,
      "ħ拳": 1213,
      "ħ銃": 1214,
      "ħū": 1215,
      "ħţ": 1216,
      "ħñ": 1217,
      "ħɽ": 1218,
      "ħệ": 1219,
      "ħḥ": 1220,
      "ħã": 1221,
      "ħ場": 1222,
      "ħヴ": 1223,
      "ħァ": 1224,
      "ħル": 1225,
      "ħキ": 1226,
      "ħュ": 1227,
      "ħリ": 1228,
      "ħア": 1229,
      "ħּ": 1230,
      "ħ-": 1231,
      "ħ@": 1232,
      "ħე": 1233,
      "ħạ": 1234,
      "ħỹ": 1235,
      "ħù": 1236,
      "ħგ": 1237,
      "ħნ": 1238,
      "ħც": 1239,
      "ħ付": 1240,
      "ħき": 1241,
      "ħœ": 1242,
      "ħܠ": 1243,
      "ħܗ": 1244,
      "ħܐ": 1245,
      "ħč": 1246,
      "ħ夫": 1247,
      "ħ人": 1248,
      "ħλ": 1249,
      "ħά": 1250,
      "ħχ": 1251,
      "ħラ": 1252,
      "ħー": 1253,
      "ħ广": 1254,
      "ħ火": 1255,
      "ħ砲": 1256,
      "ħ부": 1257,
      "ħ대": 1258,
      "ħف": 1259,
      "ħن": 1260,
      "ħا": 1261,
      "ħب": 1262,
      "ħж": 1263,
      "ħт": 1264,
      "ħл": 1265,
      "ħĔ": 1266,
      "ħが": 1267,
      "ħう": 1268,
      "ħお": 1269,
      "ħり": 1270,
      "ħ散": 1271,
      "ħ關": 1272,
      "ħゆ": 1273,
      "ħテ": 1274,
      "ħィ": 1275,
      "ħャ": 1276,
      "ħモ": 1277,
      "ħン": 1278,
      "ħค": 1279,
      "ħต": 1280,
      "ħ月": 1281,
      "ħš": 1282,
      "ħ,": 1283,
      "ħɪ": 1284,
      "ħ咲": 1285,
      "ħく": 1286,
      "ħ光": 1287,
      "ħ花": 1288,
      "ħば": 1289,
      "ħÄ": 1290,
      "ħ藥": 1291,
      "ħ師": 1292,
      "ħṣ": 1293,
      "ħQ": 1294,
      "ħî": 1295,
      "ħž": 1296,
      "ħト": 1297,
      "ħプ": 1298,
      "ħą": 1299,
      "ħึ": 1300,
      "ħ波": 1301,
      "ħ義": 1302,
      "ħ信": 1303,
      "ħḍ": 1304,
      "ħ作": 1305,
      "ħه": 1306,
      "ħ`": 1307,
      "ħấ": 1308,
      "ħų": 1309,
      "ħള": 1310,
      "ħз": 1311,
      "ħあ": 1312,
      "ħ誡": 1313,
      "ħっ": 1314,
      "ħし": 1315,
      "ħょ": 1316,
      "ħに": 1317,
      "ħæ": 1318,
      "ħ堤": 1319,
      "ħش": 1320,
      "ħي": 1321,
      "ħخ": 1322,
      "ħ円": 1323,
      "ħ寺": 1324,
      "ħぐ": 1325,
      "ħれ": 1326,
      "ħɛ": 1327,
      "ħह": 1328,
      "ħы": 1329,
      "ħг": 1330,
      "ħγ": 1331,
      "ħロ": 1332,
      "ħイ": 1333,
      "ħტ": 1334,
      "ħ豫": 1335,
      "ħ琦": 1336,
      "ħς": 1337,
      "ħめ": 1338,
      "ħ瘡": 1339,
      "ħ'": 1340,
      "ħà": 1341,
      "ħर": 1342,
      "ħʁ": 1343,
      "ħɑ": 1344,
      "ħس": 1345,
      "ħت": 1346,
      "ħأ": 1347,
      "ħك": 1348,
      "ħد": 1349,
      "ħ正": 1350,
      "ħ芳": 1351,
      "ħδ": 1352,
      "ħε": 1353,
      "ħ狸": 1354,
      "ħ精": 1355,
      "ħð": 1356,
      "ħ.": 1357,
      "ħ라": 1358,
      "ħซ": 1359,
      "ħ州": 1360,
      "ħ云": 1361,
      "ħ清": 1362,
      "ħܲ": 1363,
      "ħܵ": 1364,
      "ħწ": 1365,
      "ħფ": 1366,
      "ħх": 1367,
      "ħ二": 1368,
      "ħý": 1369,
      "ħë": 1370,
      "ħเ": 1371,
      "ħป": 1372,
      "ħʊ": 1373,
      "ħჱ": 1374,
      "ħḷ": 1375,
      "ħण": 1376,
      "ħस": 1377,
      "ħु": 1378,
      "ħन": 1379,
      "ħ珙": 1380,
      "ħב": 1381,
      "ħת": 1382,
      "ħא": 1383,
      "ħי": 1384,
      "ħя": 1385,
      "ħす": 1386,
      "ħひ": 1387,
      "ħと": 1388,
      "ħ覺": 1389,
      "ħộ": 1390,
      "ħן": 1391,
      "ħż": 1392,
      "ħス": 1393,
      "ħニ": 1394,
      "ħử": 1395,
      "ħ運": 1396,
      "ħ命": 1397,
      "ħ戦": 1398,
      "ħ乙": 1399,
      "ħ女": 1400,
      "ħò": 1401,
      "ħ宋": 1402,
      "ħ中": 1403,
      "ħ興": 1404,
      "ħ岳": 1405,
      "ħ王": 1406,
      "ħ傳": 1407,
      "ħ在": 1408,
      "ħク": 1409,
      "ħサ": 1410,
      "ħм": 1411,
      "ħρ": 1412,
      "ħξ": 1413,
      "ħع": 1414,
      "ħê": 1415,
      "ħ同": 1416,
      "ħή": 1417,
      "ħη": 1418,
      "ħ颜": 1419,
      "ħ宗": 1420,
      "ħ望": 1421,
      "ħხ": 1422,
      "ħち": 1423,
      "ħ技": 1424,
      "ħ剛": 1425,
      "ħ灼": 1426,
      "ħ熱": 1427,
      "ħ都": 1428,
      "ħ市": 1429,
      "ħे": 1430,
      "ħक": 1431,
      "ħセ": 1432,
      "ħオ": 1433,
      "ħず": 1434,
      "ħ日": 1435,
      "ħも": 1436,
      "ħだ": 1437,
      "ħᵻ": 1438,
      "ħṇ": 1439,
      "ħ懷": 1440,
      "ħ名": 1441,
      "ħま": 1442,
      "ħḏ": 1443,
      "ħṯ": 1444,
      "ħ世": 1445,
      "ħư": 1446,
      "ħậ": 1447,
      "ħল": 1448,
      "ħم": 1449,
      "ħゃ": 1450,
      "ħई": 1451,
      "ħ神": 1452,
      "ħ村": 1453,
      "ħ園": 1454,
      "ħを": 1455,
      "ħこ": 1456,
      "ħि": 1457,
      "ħं": 1458,
      "ħग": 1459,
      "ħỳ": 1460,
      "ħю": 1461,
      "ħơ": 1462,
      "ħğ": 1463,
      "ħũ": 1464,
      "ħة": 1465,
      "ħ足": 1466,
      "ħ跡": 1467,
      "ħṃ": 1468,
      "ħả": 1469,
      "ħ顯": 1470,
      "ħズ": 1471,
      "ħ旦": 1472,
      "ħ沙": 1473,
      "ħɾ": 1474,
      "ħʲ": 1475,
      "ħ選": 1476,
      "ħɳ": 1477,
      "ħÉ": 1478,
      "ħナ": 1479,
      "ħミ": 1480,
      "ħ憶": 1481,
      "ħ棘": 1482,
      "ħʒ": 1483,
      "ħブ": 1484,
      "ħص": 1485,
      "ħ妙": 1486,
      "ħ观": 1487,
      "ħდ": 1488,
      "ħ灵": 1489,
      "ħ宫": 1490,
      "ħჲ": 1491,
      "ħก": 1492,
      "ħș": 1493,
      "ħਲ": 1494,
      "ħਾ": 1495,
      "ħਹ": 1496,
      "ħɐ": 1497,
      "ħ侗": 1498,
      "ħσ": 1499,
      "ħύ": 1500,
      "ħ再": 1501,
      "ħ遇": 1502,
      "ħ大": 1503,
      "ħォ": 1504,
      "ħゥ": 1505,
      "ħะ": 1506,
      "ħน": 1507,
      "ħ誓": 1508,
      "ħ愛": 1509,
      "ħָ": 1510,
      "ħֶ": 1511,
      "ħ全": 1512,
      "ħド": 1513,
      "ħ転": 1514,
      "ħ裁": 1515,
      "ħ判": 1516,
      "ħェ": 1517,
      "ħバ": 1518,
      "ħṭ": 1519,
      "ħ少": 1520,
      "ħみ": 1521,
      "ħネ": 1522,
      "ħシ": 1523,
      "ħョ": 1524,
      "ħ霖": 1525,
      "ħذ": 1526,
      "ħ化": 1527,
      "ħ翠": 1528,
      "ħ英": 1529,
      "ħ政": 1530,
      "ħ沂": 1531,
      "ħắ": 1532,
      "ħ君": 1533,
      "ħ願": 1534,
      "ħら": 1535,
      "ħू": 1536,
      "ħė": 1537,
      "ħ淹": 1538,
      "ħ金": 1539,
      "ħ山": 1540,
      "ħț": 1541,
      "ħ玩": 1542,
      "ħ具": 1543,
      "ħ厂": 1544,
      "ħ邦": 1545,
      "ħ昌": 1546,
      "ħό": 1547,
      "ħ良": 1548,
      "ħ防": 1549,
      "ħ御": 1550,
      "ħ战": 1551,
      "ħษ": 1552,
      "ħฐ": 1553,
      "ħψ": 1554,
      "ħʿ": 1555,
      "ħ天": 1556,
      "ħ府": 1557,
      "ħу": 1558,
      "ħπ": 1559,
      "ħल": 1560,
      "ħǎ": 1561,
      "ħễ": 1562,
      "ħθ": 1563,
      "ħ雲": 1564,
      "ħầ": 1565,
      "ħ解": 1566,
      "ħ放": 1567,
      "ħ台": 1568,
      "ħノ": 1569,
      "ħ國": 1570,
      "ħ春": 1571,
      "ħ秋": 1572,
      "ħ後": 1573,
      "ħ集": 1574,
      "ħº": 1575,
      "ħκ": 1576,
      "ħ鋼": 1577,
      "ħ汉": 1578,
      "ħグ": 1579,
      "ħダ": 1580,
      "ħム": 1581,
      "ħ彌": 1582,
      "ħ遠": 1583,
      "ħガ": 1584,
      "ħ靂": 1585,
      "ħ球": 1586,
      "ħ독": 1587,
      "ħ립": 1588,
      "ħ보": 1589,
      "ħ병": 1590,
      "ħ연": 1591,
      "ħĒ": 1592,
      "ħภ": 1593,
      "ħด": 1594,
      "ħै": 1595,
      "ħق": 1596,
      "ħώ": 1597,
      "ħ生": 1598,
      "ħჳ": 1599,
      "ħ来": 1600,
      "ħ挑": 1601,
      "ħ者": 1602,
      "ħ主": 1603,
      "ħ巳": 1604,
      "ħ泣": 1605,
      "ħ蘄": 1606,
      "ħ錄": 1607,
      "ħქ": 1608,
      "ħぎ": 1609,
      "ħ去": 1610,
      "ħ思": 1611,
      "ħ出": 1612,
      "ħớ": 1613,
      "ħ瓊": 1614,
      "ħ拉": 1615,
      "ħֵ": 1616,
      "ħʔ": 1617,
      "ħツ": 1618,
      "ħ丙": 1619,
      "ħů": 1620,
      "ħء": 1621,
      "ħứ": 1622,
      "ħס": 1623,
      "ħ明": 1624,
      "ħ部": 1625,
      "ħデ": 1626,
      "ħ祠": 1627,
      "ħ規": 1628,
      "ħ之": 1629,
      "ħ平": 1630,
      "ħる": 1631,
      "ħ劇": 1632,
      "ħר": 1633,
      "ħם": 1634,
      "ħ臂": 1635,
      "ħ膀": 1636,
      "ħ子": 1637,
      "ħ安": 1638,
      "ħṛ": 1639,
      "ħณ": 1640,
      "ħม": 1641,
      "ħĕ": 1642,
      "ħữ": 1643,
      "ħ揺": 1644,
      "ħご": 1645,
      "ħ珂": 1646,
      "ħ３": 1647,
      "ħث": 1648,
      "ħɫ": 1649,
      "ħυ": 1650,
      "ħє": 1651,
      "ħさ": 1652,
      "ħ祈": 1653,
      "ħ狐": 1654,
      "ħแ": 1655,
      "ħ田": 1656,
      "ħإ": 1657,
      "ħǔ": 1658,
      "ħἰ": 1659,
      "ħ澤": 1660,
      "ħ方": 1661,
      "ħ憑": 1662,
      "ħ塘": 1663,
      "ħフ": 1664,
      "ħタ": 1665,
      "ħੱ": 1666,
      "ħ和": 1667,
      "ħ川": 1668,
      "ħȯ": 1669,
      "ħω": 1670,
      "ħ絵": 1671,
      "ħˌ": 1672,
      "ħੁ": 1673,
      "ħ曦": 1674,
      "ħマ": 1675,
      "ħ依": 1676,
      "ħ景": 1677,
      "ħエ": 1678,
      "ħ贵": 1679,
      "ħ兵": 1680,
      "ħ充": 1681,
      "ħ空": 1682,
      "ħ束": 1683,
      "ħ守": 1684,
      "ħാ": 1685,
      "ħഹ": 1686,
      "ħܕ": 1687,
      "ħܝ": 1688,
      "ħܢ": 1689,
      "ħܬ": 1690,
      "ħỗ": 1691,
      "ħɜ": 1692,
      "ħ彩": 1693,
      "ħש": 1694,
      "ħמ": 1695,
      "ħצ": 1696,
      "ħ建": 1697,
      "ħ华": 1698,
      "ħ本": 1699,
      "ħা": 1700,
      "ħহ": 1701,
      "ħę": 1702,
      "ħỏ": 1703,
      "ħ鍵": 1704,
      "ħ番": 1705,
      "ħ宝": 1706,
      "ħ物": 1707,
      "ħ錡": 1708,
      "ħ其": 1709,
      "ħ琪": 1710,
      "ħ尾": 1711,
      "ħ榮": 1712,
      "ħhe": 1713,
      "the": 1714,
      "ħer": 1715,
      "ħin": 1716,
      "ħon": 1717,
      "ħed": 1718,
      "ħnd": 1719,
      "ħat": 1720,
      "ħor": 1721,
      "ħes": 1722,
      "ħar": 1723,
      "ħen": 1724,
      "of": 1725,
      "ħan": 1726,
      "ħal": 1727,
      "in": 1728,
      "ħit": 1729,
      "ħing": 1730,
      "ħis": 1731,
      "and": 1732,
      "ħas": 1733,
      "to": 1734,
      "ħic": 1735,
      "ħou": 1736,
      "ħre": 1737,
      "ħion": 1738,
      "ħom": 1739,
      "ħel": 1740,
      "ħil": 1741,
      "ħec": 1742,
      "ħent": 1743,
      "th": 1744,
      "ħst": 1745,
      "ħam": 1746,
      "ħur": 1747,
      "ħet": 1748,
      "ħad": 1749,
      "ħol": 1750,
      "ħac": 1751,
      "was": 1752,
      "ħro": 1753,
      "The": 1754,
      "on": 1755,
      "ħly": 1756,
      "ħir": 1757,
      "ħle": 1758,
      "for": 1759,
      "ħiv": 1760,
      "ħter": 1761,
      "ħid": 1762,
      "@-": 1763,
      "@-@": 1764,
      "ħot": 1765,
      "ħig": 1766,
      "as": 1767,
      "ħow": 1768,
      "st": 1769,
      "ħith": 1770,
      "ħay": 1771,
      "ħem": 1772,
      "ħim": 1773,
      "ħut": 1774,
      "ħation": 1775,
      "be": 1776,
      "that": 1777,
      "with": 1778,
      "ħth": 1779,
      "is": 1780,
      "ħers": 1781,
      "ħus": 1782,
      "ħts": 1783,
      "re": 1784,
      "wh": 1785,
      "by": 1786,
      "ħul": 1787,
      "al": 1788,
      "ħch": 1789,
      "ħce": 1790,
      "con": 1791,
      "ħver": 1792,
      "ħand": 1793,
      "ħos": 1794,
      "at": 1795,
      "ħain": 1796,
      "19": 1797,
      "ħag": 1798,
      "fr": 1799,
      "ħher": 1800,
      "an": 1801,
      "ħav": 1802,
      "ħum": 1803,
      "ħest": 1804,
      "ħod": 1805,
      "his": 1806,
      "ħop": 1807,
      "from": 1808,
      "ħess": 1809,
      "ħri": 1810,
      "com": 1811,
      "ħct": 1812,
      "ħun": 1813,
      "ħap": 1814,
      "20": 1815,
      "he": 1816,
      "ħies": 1817,
      "pro": 1818,
      "ħere": 1819,
      "ħist": 1820,
      "de": 1821,
      "su": 1822,
      "ħif": 1823,
      "ħear": 1824,
      "In": 1825,
      "ħill": 1826,
      "ħew": 1827,
      "were": 1828,
      "ħong": 1829,
      "ħld": 1830,
      "ħab": 1831,
      "ħak": 1832,
      "ħort": 1833,
      "ħall": 1834,
      "ħigh": 1835,
      "ħect": 1836,
      "ħate": 1837,
      "ħard": 1838,
      "ħoc": 1839,
      "ħich": 1840,
      "it": 1841,
      "se": 1842,
      "or": 1843,
      "ch": 1844,
      "ħpp": 1845,
      "ħud": 1846,
      "ħber": 1847,
      "ex": 1848,
      "ħgh": 1849,
      "ħity": 1850,
      "ħated": 1851,
      "pl": 1852,
      "ħse": 1853,
      "ħart": 1854,
      "ħame": 1855,
      "ħive": 1856,
      "are": 1857,
      "sh": 1858,
      "ħant": 1859,
      "ħore": 1860,
      "ħack": 1861,
      "ħrou": 1862,
      "had": 1863,
      "ħov": 1864,
      "which": 1865,
      "ħour": 1866,
      "St": 1867,
      "ħian": 1868,
      "ħnt": 1869,
      "sp": 1870,
      "ħast": 1871,
      "pr": 1872,
      "ħell": 1873,
      "not": 1874,
      "ħip": 1875,
      "tr": 1876,
      "ħord": 1877,
      "ħment": 1878,
      "ħally": 1879,
      "ħine": 1880,
      "ħrit": 1881,
      "ħge": 1882,
      "ħost": 1883,
      "ħpt": 1884,
      "ħther": 1885,
      "Ch": 1886,
      "ħish": 1887,
      "ħave": 1888,
      "ħia": 1889,
      "rec": 1890,
      "ħue": 1891,
      "ħary": 1892,
      "ħust": 1893,
      "le": 1894,
      "ħog": 1895,
      "200": 1896,
      "fir": 1897,
      "ħpl": 1898,
      "ħous": 1899,
      "ħight": 1900,
      "ħcc": 1901,
      "inc": 1902,
      "ħout": 1903,
      "ħions": 1904,
      "their": 1905,
      "but": 1906,
      "ħra": 1907,
      "ħie": 1908,
      "cont": 1909,
      "ar": 1910,
      "int": 1911,
      "ħfter": 1912,
      "ħure": 1913,
      "ħical": 1914,
      "ħial": 1915,
      "ħqu": 1916,
      "ħso": 1917,
      "first": 1918,
      "ħould": 1919,
      "its": 1920,
      "ħhed": 1921,
      "ħub": 1922,
      "whe": 1923,
      "ħoll": 1924,
      "ħwo": 1925,
      "her": 1926,
      "ħff": 1927,
      "ħok": 1928,
      "also": 1929,
      "cl": 1930,
      "ħper": 1931,
      "ħide": 1932,
      "ħown": 1933,
      "ħater": 1934,
      "ħome": 1935,
      "ħorm": 1936,
      "ħru": 1937,
      "ħork": 1938,
      "ħass": 1939,
      "res": 1940,
      "ħign": 1941,
      "ħire": 1942,
      "ab": 1943,
      "ad": 1944,
      "rel": 1945,
      "ħage": 1946,
      "ħ00": 1947,
      "have": 1948,
      "un": 1949,
      "ħence": 1950,
      "ħmer": 1951,
      "one": 1952,
      "ħond": 1953,
      "en": 1954,
      "He": 1955,
      "ħry": 1956,
      "has": 1957,
      "ħough": 1958,
      "Th": 1959,
      "ħans": 1960,
      "per": 1961,
      "been": 1962,
      "ħime": 1963,
      "two": 1964,
      "18": 1965,
      "@.": 1966,
      "@.@": 1967,
      "Al": 1968,
      "ħree": 1969,
      "ħound": 1970,
      "ħland": 1971,
      "sc": 1972,
      "ħuring": 1973,
      "ħile": 1974,
      "comp": 1975,
      "ħend": 1976,
      "ħuc": 1977,
      "ħely": 1978,
      "ħory": 1979,
      "ħition": 1980,
      "ħance": 1981,
      "ħations": 1982,
      "dis": 1983,
      "this": 1984,
      "bec": 1985,
      "ħang": 1986,
      "app": 1987,
      "ħiz": 1988,
      "all": 1989,
      "ħey": 1990,
      "ħach": 1991,
      "ħade": 1992,
      "play": 1993,
      "ħlud": 1994,
      "who": 1995,
      "ħric": 1996,
      "des": 1997,
      "ag": 1998,
      "they": 1999,
      "year": 2000,
      "201": 2001,
      "other": 2002,
      "man": 2003,
      "It": 2004,
      "ħpr": 2005,
      "after": 2006,
      "ħact": 2007,
      "ser": 2008,
      "ħib": 2009,
      "ħult": 2010,
      "over": 2011,
      "off": 2012,
      "ħount": 2013,
      "ħite": 2014,
      "im": 2015,
      "@,": 2016,
      "@,@": 2017,
      "part": 2018,
      "includ": 2019,
      "ħurn": 2020,
      "ħover": 2021,
      "ħark": 2022,
      "ħik": 2023,
      "att": 2024,
      "us": 2025,
      "out": 2026,
      "ħwn": 2027,
      "ħeas": 2028,
      "ħice": 2029,
      "ħember": 2030,
      "ħace": 2031,
      "ħents": 2032,
      "ħng": 2033,
      "ħens": 2034,
      "pre": 2035,
      "up": 2036,
      "ev": 2037,
      "ħind": 2038,
      "time": 2039,
      "ħnder": 2040,
      "into": 2041,
      "ħwe": 2042,
      "ħail": 2043,
      "ħoy": 2044,
      "ħose": 2045,
      "comm": 2046,
      "she": 2047,
      "ħamp": 2048,
      "would": 2049,
      "ħward": 2050,
      "ħied": 2051,
      "ħoin": 2052,
      "On": 2053,
      "ħte": 2054,
      "more": 2055,
      "ħrough": 2056,
      "ħable": 2057,
      "ħman": 2058,
      "ħings": 2059,
      "ħtern": 2060,
      "ħited": 2061,
      "we": 2062,
      "ħever": 2063,
      "ħason": 2064,
      "ħrib": 2065,
      "him": 2066,
      "ħors": 2067,
      "Un": 2068,
      "ħood": 2069,
      "ħles": 2070,
      "cent": 2071,
      "ħild": 2072,
      "ħix": 2073,
      "ħction": 2074,
      "ħock": 2075,
      "ħces": 2076,
      "work": 2077,
      "ħates": 2078,
      "ħious": 2079,
      "ħev": 2080,
      "ħinal": 2081,
      "ħone": 2082,
      "ħold": 2083,
      "ħath": 2084,
      "ħround": 2085,
      "ħport": 2086,
      "ħiss": 2087,
      "ħake": 2088,
      "ħss": 2089,
      "Ar": 2090,
      "them": 2091,
      "sec": 2092,
      "Fr": 2093,
      "bet": 2094,
      "when": 2095,
      "song": 2096,
      "rem": 2097,
      "ħaw": 2098,
      "ħep": 2099,
      "ħform": 2100,
      "ħual": 2101,
      "ear": 2102,
      "ħfer": 2103,
      "ħick": 2104,
      "fe": 2105,
      "ħted": 2106,
      "ħubl": 2107,
      "ħgan": 2108,
      "kn": 2109,
      "cons": 2110,
      "ħaus": 2111,
      "ħare": 2112,
      "most": 2113,
      "fl": 2114,
      "during": 2115,
      "new": 2116,
      "ħorth": 2117,
      "ħilm": 2118,
      "ħons": 2119,
      "only": 2120,
      "ħters": 2121,
      "dec": 2122,
      "game": 2123,
      "ħug": 2124,
      "ħook": 2125,
      "ħved": 2126,
      "ħatt": 2127,
      "ħeld": 2128,
      "Mar": 2129,
      "ħoth": 2130,
      "ħreat": 2131,
      "ħway": 2132,
      "ħollow": 2133,
      "ħob": 2134,
      "can": 2135,
      "ħouth": 2136,
      "ħween": 2137,
      "199": 2138,
      "ħvel": 2139,
      "char": 2140,
      "about": 2141,
      "te": 2142,
      "season": 2143,
      "ħral": 2144,
      "ħational": 2145,
      "again": 2146,
      "three": 2147,
      "ħular": 2148,
      "under": 2149,
      "ħeg": 2150,
      "than": 2151,
      "Com": 2152,
      "ħict": 2153,
      "ħhip": 2154,
      "ħft": 2155,
      "ħhn": 2156,
      "between": 2157,
      "ħered": 2158,
      "record": 2159,
      "ħiew": 2160,
      "through": 2161,
      "ħision": 2162,
      "ħolog": 2163,
      "ħfore": 2164,
      "ħorn": 2165,
      "later": 2166,
      "num": 2167,
      "end": 2168,
      "prod": 2169,
      "ħames": 2170,
      "pos": 2171,
      "writ": 2172,
      "while": 2173,
      "film": 2174,
      "ħished": 2175,
      "reg": 2176,
      "ħals": 2177,
      "form": 2178,
      "ass": 2179,
      "ħury": 2180,
      "made": 2181,
      "sub": 2182,
      "ret": 2183,
      "ħorld": 2184,
      "ac": 2185,
      "New": 2186,
      "spec": 2187,
      "acc": 2188,
      "act": 2189,
      "ind": 2190,
      "pe": 2191,
      "where": 2192,
      "mov": 2193,
      "ħener": 2194,
      "ħmeric": 2195,
      "ħank": 2196,
      "ħating": 2197,
      "inter": 2198,
      "Americ": 2199,
      "ħph": 2200,
      "ħole": 2201,
      "some": 2202,
      "lar": 2203,
      "def": 2204,
      "bas": 2205,
      "ħbum": 2206,
      "releas": 2207,
      "ħont": 2208,
      "ħaid": 2209,
      "mus": 2210,
      "bu": 2211,
      "follow": 2212,
      "gr": 2213,
      "At": 2214,
      "ħann": 2215,
      "ħived": 2216,
      "am": 2217,
      "ħific": 2218,
      "such": 2219,
      "second": 2220,
      "ħced": 2221,
      "so": 2222,
      "ħike": 2223,
      "four": 2224,
      "ħery": 2225,
      "An": 2226,
      "used": 2227,
      "ħred": 2228,
      "ħics": 2229,
      "day": 2230,
      "ħhes": 2231,
      "rev": 2232,
      "As": 2233,
      "ħily": 2234,
      "This": 2235,
      "000": 2236,
      "publ": 2237,
      "ħane": 2238,
      "call": 2239,
      "ħex": 2240,
      "Sh": 2241,
      "album": 2242,
      "ħhen": 2243,
      "ħany": 2244,
      "before": 2245,
      "me": 2246,
      "do": 2247,
      "ħres": 2248,
      "sy": 2249,
      "10": 2250,
      "Eng": 2251,
      "being": 2252,
      "ħoun": 2253,
      "Jo": 2254,
      "ħected": 2255,
      "ħept": 2256,
      "ep": 2257,
      "supp": 2258,
      "Br": 2259,
      "there": 2260,
      "years": 2261,
      "mon": 2262,
      "ħowever": 2263,
      "bl": 2264,
      "ħool": 2265,
      "high": 2266,
      "ħars": 2267,
      "found": 2268,
      "ħird": 2269,
      "no": 2270,
      "ħife": 2271,
      "set": 2272,
      "ħother": 2273,
      "ħines": 2274,
      "ħaj": 2275,
      "ħained": 2276,
      "12": 2277,
      "sur": 2278,
      "ħins": 2279,
      "ħised": 2280,
      "ħeb": 2281,
      "ħities": 2282,
      "ħrop": 2283,
      "ħek": 2284,
      "ħio": 2285,
      "series": 2286,
      "loc": 2287,
      "ħpen": 2288,
      "number": 2289,
      "ħiver": 2290,
      "ħair": 2291,
      "pres": 2292,
      "ħause": 2293,
      "ħten": 2294,
      "ħode": 2295,
      "Sc": 2296,
      "sever": 2297,
      "Car": 2298,
      "ħier": 2299,
      "both": 2300,
      "ħince": 2301,
      "ħement": 2302,
      "ħrow": 2303,
      "appear": 2304,
      "ħower": 2305,
      "ħress": 2306,
      "ħron": 2307,
      "co": 2308,
      "16": 2309,
      "Brit": 2310,
      "then": 2311,
      "ħirect": 2312,
      "ħiet": 2313,
      "epis": 2314,
      "qu": 2315,
      "ħise": 2316,
      "including": 2317,
      "Le": 2318,
      "ħale": 2319,
      "ħits": 2320,
      "ħection": 2321,
      "ħather": 2322,
      "cap": 2323,
      "ħert": 2324,
      "against": 2325,
      "well": 2326,
      "became": 2327,
      "contr": 2328,
      "known": 2329,
      "trans": 2330,
      "charac": 2331,
      "add": 2332,
      "el": 2333,
      "back": 2334,
      "go": 2335,
      "pop": 2336,
      "desc": 2337,
      "sing": 2338,
      "ħield": 2339,
      "ħson": 2340,
      "ħurch": 2341,
      "perform": 2342,
      "inv": 2343,
      "em": 2344,
      "ħures": 2345,
      "ħern": 2346,
      "198": 2347,
      "str": 2348,
      "ħyl": 2349,
      "ħful": 2350,
      "many": 2351,
      "main": 2352,
      "ħup": 2353,
      "stud": 2354,
      "long": 2355,
      "ħthough": 2356,
      "min": 2357,
      "ħinn": 2358,
      "United": 2359,
      "15": 2360,
      "ħvelop": 2361,
      "ħled": 2362,
      "ħerm": 2363,
      "John": 2364,
      "11": 2365,
      "orig": 2366,
      "met": 2367,
      "ħton": 2368,
      "ħober": 2369,
      "ħels": 2370,
      "17": 2371,
      "est": 2372,
      "ħoot": 2373,
      "pol": 2374,
      "century": 2375,
      "team": 2376,
      "After": 2377,
      "ħoad": 2378,
      "ħuch": 2379,
      "She": 2380,
      "ħve": 2381,
      "develop": 2382,
      "ħ0s": 2383,
      "show": 2384,
      "conc": 2385,
      "par": 2386,
      "ħative": 2387,
      "ħfl": 2388,
      "br": 2389,
      "ħelf": 2390,
      "ħiam": 2391,
      "ħovern": 2392,
      "194": 2393,
      "ħrap": 2394,
      "ħaz": 2395,
      "sm": 2396,
      "ħivers": 2397,
      "ħram": 2398,
      "ħope": 2399,
      "lead": 2400,
      "several": 2401,
      "ob": 2402,
      "ħah": 2403,
      "ħley": 2404,
      "mill": 2405,
      "ħually": 2406,
      "ħanc": 2407,
      "began": 2408,
      "near": 2409,
      "196": 2410,
      "dif": 2411,
      "contin": 2412,
      "Ind": 2413,
      "sign": 2414,
      "ħized": 2415,
      "197": 2416,
      "ħll": 2417,
      "ħross": 2418,
      "direct": 2419,
      "ħains": 2420,
      "ext": 2421,
      "ħemb": 2422,
      "compl": 2423,
      "air": 2424,
      "ħyp": 2425,
      "may": 2426,
      "Wh": 2427,
      "ħsp": 2428,
      "ħase": 2429,
      "art": 2430,
      "crit": 2431,
      "ħued": 2432,
      "early": 2433,
      "could": 2434,
      "hist": 2435,
      "ħune": 2436,
      "bel": 2437,
      "cre": 2438,
      "did": 2439,
      "called": 2440,
      "episode": 2441,
      "Is": 2442,
      "ħau": 2443,
      "describ": 2444,
      "ħimes": 2445,
      "bro": 2446,
      "ħroup": 2447,
      "run": 2448,
      "ħople": 2449,
      "ħntil": 2450,
      "rece": 2451,
      "ħaking": 2452,
      "ħull": 2453,
      "disc": 2454,
      "along": 2455,
      "ħink": 2456,
      "ħccess": 2457,
      "ħments": 2458,
      "car": 2459,
      "May": 2460,
      "inst": 2461,
      "American": 2462,
      "said": 2463,
      "dist": 2464,
      "feat": 2465,
      "Bl": 2466,
      "ħenn": 2467,
      "mil": 2468,
      "these": 2469,
      "ħitt": 2470,
      "po": 2471,
      "ħium": 2472,
      "ħder": 2473,
      "ħets": 2474,
      "Aust": 2475,
      "resp": 2476,
      "you": 2477,
      "ħamed": 2478,
      "ħhy": 2479,
      "though": 2480,
      "ħured": 2481,
      "ship": 2482,
      "ħove": 2483,
      "oper": 2484,
      "British": 2485,
      "down": 2486,
      "until": 2487,
      "ħruct": 2488,
      "prev": 2489,
      "fin": 2490,
      "ħange": 2491,
      "col": 2492,
      "prov": 2493,
      "city": 2494,
      "gener": 2495,
      "same": 2496,
      "war": 2497,
      "War": 2498,
      "ħty": 2499,
      "ħists": 2500,
      "ħially": 2501,
      "released": 2502,
      "land": 2503,
      "ħism": 2504,
      "ħeng": 2505,
      "own": 2506,
      "any": 2507,
      "Sp": 2508,
      "ħided": 2509,
      "ħerv": 2510,
      "ħoman": 2511,
      "ħerson": 2512,
      "cond": 2513,
      "return": 2514,
      "Pl": 2515,
      "They": 2516,
      "music": 2517,
      "km": 2518,
      "ħajor": 2519,
      "sl": 2520,
      "design": 2521,
      "produc": 2522,
      "For": 2523,
      "ħession": 2524,
      "ħible": 2525,
      "mat": 2526,
      "ħosed": 2527,
      "sim": 2528,
      "const": 2529,
      "million": 2530,
      "exp": 2531,
      "13": 2532,
      "dep": 2533,
      "because": 2534,
      "Ger": 2535,
      "fam": 2536,
      "use": 2537,
      "area": 2538,
      "Tr": 2539,
      "Chr": 2540,
      "Aug": 2541,
      "final": 2542,
      "August": 2543,
      "occ": 2544,
      "ħently": 2545,
      "open": 2546,
      "ħash": 2547,
      "like": 2548,
      "success": 2549,
      "ħund": 2550,
      "ħouse": 2551,
      "ħony": 2552,
      "ħcept": 2553,
      "ħues": 2554,
      "Cl": 2555,
      "pass": 2556,
      "ħoss": 2557,
      "eff": 2558,
      "ħeal": 2559,
      "ħchool": 2560,
      "people": 2561,
      "Con": 2562,
      "adv": 2563,
      "ħstem": 2564,
      "offic": 2565,
      "count": 2566,
      "six": 2567,
      "ħuth": 2568,
      "ħmy": 2569,
      "195": 2570,
      "around": 2571,
      "small": 2572,
      "ħident": 2573,
      "However": 2574,
      "Sept": 2575,
      "ħgg": 2576,
      "dam": 2577,
      "mod": 2578,
      "ħpor": 2579,
      "north": 2580,
      "Ju": 2581,
      "head": 2582,
      "govern": 2583,
      "group": 2584,
      "ħales": 2585,
      "poin": 2586,
      "character": 2587,
      "start": 2588,
      "Ad": 2589,
      "ħomin": 2590,
      "ed": 2591,
      "each": 2592,
      "support": 2593,
      "complet": 2594,
      "September": 2595,
      "ħwards": 2596,
      "consid": 2597,
      "ħution": 2598,
      "ne": 2599,
      "following": 2600,
      "ħaining": 2601,
      "World": 2602,
      "All": 2603,
      "ħven": 2604,
      "Comm": 2605,
      "Austral": 2606,
      "life": 2607,
      "imp": 2608,
      "ann": 2609,
      "ħural": 2610,
      "five": 2611,
      "var": 2612,
      "ħject": 2613,
      "US": 2614,
      "Her": 2615,
      "attack": 2616,
      "193": 2617,
      "ħording": 2618,
      "Pro": 2619,
      "gu": 2620,
      "will": 2621,
      "ever": 2622,
      "ħects": 2623,
      "191": 2624,
      "Col": 2625,
      "large": 2626,
      "II": 2627,
      "ħient": 2628,
      "ħting": 2629,
      "ħague": 2630,
      "North": 2631,
      "ħlish": 2632,
      "book": 2633,
      "ħute": 2634,
      "ħox": 2635,
      "ħired": 2636,
      "ħren": 2637,
      "ħhel": 2638,
      "ħaving": 2639,
      "ħaced": 2640,
      "star": 2641,
      "June": 2642,
      "ħaur": 2643,
      "tit": 2644,
      "ħended": 2645,
      "14": 2646,
      "ħives": 2647,
      "ħored": 2648,
      "id": 2649,
      "ħina": 2650,
      "ħilt": 2651,
      "ħats": 2652,
      "week": 2653,
      "ħmed": 2654,
      "Eur": 2655,
      "ħately": 2656,
      "German": 2657,
      "arr": 2658,
      "Jan": 2659,
      "ent": 2660,
      "since": 2661,
      "States": 2662,
      "ħuction": 2663,
      "ħology": 2664,
      "Pr": 2665,
      "major": 2666,
      "dr": 2667,
      "ħax": 2668,
      "south": 2669,
      "received": 2670,
      "South": 2671,
      "ħivision": 2672,
      "Gu": 2673,
      "ħble": 2674,
      "name": 2675,
      "partic": 2676,
      "hel": 2677,
      "ħages": 2678,
      "vers": 2679,
      "ħility": 2680,
      "Christ": 2681,
      "Oct": 2682,
      "Par": 2683,
      "public": 2684,
      "coll": 2685,
      "system": 2686,
      "ħomet": 2687,
      "King": 2688,
      "state": 2689,
      "what": 2690,
      "ħsc": 2691,
      "ħuary": 2692,
      "rest": 2693,
      "batt": 2694,
      "described": 2695,
      "October": 2696,
      "line": 2697,
      "ħaged": 2698,
      "class": 2699,
      "det": 2700,
      "prot": 2701,
      "mar": 2702,
      "red": 2703,
      "ħiving": 2704,
      "Nov": 2705,
      "care": 2706,
      "played": 2707,
      "Gr": 2708,
      "ħody": 2709,
      "incre": 2710,
      "build": 2711,
      "ħcl": 2712,
      "ħropical": 2713,
      "now": 2714,
      "took": 2715,
      "ħified": 2716,
      "ħef": 2717,
      "ħaim": 2718,
      "ħby": 2719,
      "ħrote": 2720,
      "Fl": 2721,
      "last": 2722,
      "York": 2723,
      "ħively": 2724,
      "25": 2725,
      "world": 2726,
      "ħae": 2727,
      "Dec": 2728,
      "late": 2729,
      "ħside": 2730,
      "ħ..": 2731,
      "ħograp": 2732,
      "July": 2733,
      "wrote": 2734,
      "ħpar": 2735,
      "ħech": 2736,
      "won": 2737,
      "ħideo": 2738,
      "species": 2739,
      "serv": 2740,
      "ħeder": 2741,
      "child": 2742,
      "ħians": 2743,
      "ħined": 2744,
      "...": 2745,
      "camp": 2746,
      "ħret": 2747,
      "result": 2748,
      "Can": 2749,
      "During": 2750,
      "much": 2751,
      "larg": 2752,
      "due": 2753,
      "allow": 2754,
      "single": 2755,
      "Apr": 2756,
      "April": 2757,
      "ħides": 2758,
      "differ": 2759,
      "just": 2760,
      "And": 2761,
      "ħiod": 2762,
      "death": 2763,
      "ħically": 2764,
      "gun": 2765,
      "ħission": 2766,
      "ħling": 2767,
      "Be": 2768,
      "Mc": 2769,
      "ħital": 2770,
      "ħext": 2771,
      "another": 2772,
      "included": 2773,
      "Mus": 2774,
      "poss": 2775,
      "old": 2776,
      "ħham": 2777,
      "tri": 2778,
      "storm": 2779,
      "vis": 2780,
      "short": 2781,
      "January": 2782,
      "ele": 2783,
      "list": 2784,
      "ħakes": 2785,
      "left": 2786,
      "even": 2787,
      "30": 2788,
      "within": 2789,
      "England": 2790,
      "Ge": 2791,
      "report": 2792,
      "prog": 2793,
      "appro": 2794,
      "ħances": 2795,
      "ph": 2796,
      "named": 2797,
      "ħitions": 2798,
      "ħops": 2799,
      "based": 2800,
      "estab": 2801,
      "if": 2802,
      "ħai": 2803,
      "port": 2804,
      "although": 2805,
      "cr": 2806,
      "attem": 2807,
      "top": 2808,
      "ħention": 2809,
      "very": 2810,
      "ħilar": 2811,
      "track": 2812,
      "belie": 2813,
      "bre": 2814,
      "third": 2815,
      "hum": 2816,
      "ħched": 2817,
      "ħards": 2818,
      "water": 2819,
      "March": 2820,
      "games": 2821,
      "ħants": 2822,
      "ħped": 2823,
      "power": 2824,
      "school": 2825,
      "event": 2826,
      "previous": 2827,
      "family": 2828,
      "ħead": 2829,
      "ħurric": 2830,
      "ħulation": 2831,
      "November": 2832,
      "beg": 2833,
      "period": 2834,
      "review": 2835,
      "His": 2836,
      "way": 2837,
      "men": 2838,
      "expl": 2839,
      "ħms": 2840,
      "ħraft": 2841,
      "Europe": 2842,
      "home": 2843,
      "By": 2844,
      "fur": 2845,
      "ħque": 2846,
      "ħaster": 2847,
      "government": 2848,
      "typ": 2849,
      "organ": 2850,
      "ħience": 2851,
      "192": 2852,
      "December": 2853,
      "best": 2854,
      "ħavy": 2855,
      "turn": 2856,
      "ħature": 2857,
      "those": 2858,
      "hand": 2859,
      "Or": 2860,
      "There": 2861,
      "ħamb": 2862,
      "place": 2863,
      "ħached": 2864,
      "ħget": 2865,
      "med": 2866,
      "City": 2867,
      "ħhest": 2868,
      "story": 2869,
      "prom": 2870,
      "built": 2871,
      "great": 2872,
      "original": 2873,
      "person": 2874,
      "ħences": 2875,
      "conv": 2876,
      "ħested": 2877,
      "100": 2878,
      "ħench": 2879,
      "ħiven": 2880,
      "command": 2881,
      "kill": 2882,
      "ħuct": 2883,
      "When": 2884,
      "ħoci": 2885,
      "month": 2886,
      "sent": 2887,
      "ħitary": 2888,
      "ħelt": 2889,
      "opp": 2890,
      "ħaff": 2891,
      "Ph": 2892,
      "make": 2893,
      "Char": 2894,
      "ħented": 2895,
      "ħiversity": 2896,
      "National": 2897,
      "hal": 2898,
      "requ": 2899,
      "eng": 2900,
      "ħple": 2901,
      "2009": 2902,
      "auth": 2903,
      "video": 2904,
      "ant": 2905,
      "2008": 2906,
      "Bro": 2907,
      "2010": 2908,
      "ħison": 2909,
      "dem": 2910,
      "mark": 2911,
      "ħruction": 2912,
      "ħgy": 2913,
      "ħalk": 2914,
      "repr": 2915,
      "del": 2916,
      "ħning": 2917,
      "ħinc": 2918,
      "ħuss": 2919,
      "club": 2920,
      "ħmp": 2921,
      "leg": 2922,
      "Man": 2923,
      "River": 2924,
      "my": 2925,
      "ħball": 2926,
      "repl": 2927,
      "ħung": 2928,
      "view": 2929,
      "ħival": 2930,
      "ħoard": 2931,
      "ħense": 2932,
      "capt": 2933,
      "ħline": 2934,
      "still": 2935,
      "Bar": 2936,
      "moved": 2937,
      "local": 2938,
      "stand": 2939,
      "led": 2940,
      "role": 2941,
      "ħott": 2942,
      "cour": 2943,
      "came": 2944,
      "term": 2945,
      "ħness": 2946,
      "ħaken": 2947,
      "dest": 2948,
      "iss": 2949,
      "ħories": 2950,
      "ħlear": 2951,
      "ħidge": 2952,
      "ħests": 2953,
      "often": 2954,
      "common": 2955,
      "addition": 2956,
      "history": 2957,
      "ħurricane": 2958,
      "caus": 2959,
      "ħler": 2960,
      "ħner": 2961,
      "ħke": 2962,
      "ħurr": 2963,
      "Ab": 2964,
      "ħps": 2965,
      "ħatter": 2966,
      "trad": 2967,
      "No": 2968,
      "few": 2969,
      "ħrew": 2970,
      "rep": 2971,
      "sugg": 2972,
      "next": 2973,
      "ħister": 2974,
      "ħread": 2975,
      "ħript": 2976,
      "2007": 2977,
      "considered": 2978,
      "ħsh": 2979,
      "deb": 2980,
      "player": 2981,
      "mid": 2982,
      "ħior": 2983,
      "ħint": 2984,
      "ħastern": 2985,
      "ħrod": 2986,
      "One": 2987,
      "English": 2988,
      "exper": 2989,
      "French": 2990,
      "career": 2991,
      "side": 2992,
      "ħged": 2993,
      "similar": 2994,
      "recorded": 2995,
      "Batt": 2996,
      "ħays": 2997,
      "win": 2998,
      "Ear": 2999,
      "We": 3000,
      "init": 3001,
      "Acc": 3002,
      "real": 3003,
      "El": 3004,
      "Rec": 3005,
      "ħuted": 3006,
      "ħternational": 3007,
      "arch": 3008,
      "claim": 3009,
      "import": 3010,
      "company": 3011,
      "tem": 3012,
      "town": 3013,
      "published": 3014,
      "sol": 3015,
      "sold": 3016,
      "Comp": 3017,
      "continued": 3018,
      "increas": 3019,
      "Ed": 3020,
      "infl": 3021,
      "refer": 3022,
      "wind": 3023,
      "different": 3024,
      "take": 3025,
      "without": 3026,
      "ħoute": 3027,
      "songs": 3028,
      "21": 3029,
      "With": 3030,
      "Per": 3031,
      "av": 3032,
      "road": 3033,
      "tot": 3034,
      "tel": 3035,
      "former": 3036,
      "polit": 3037,
      "held": 3038,
      "tw": 3039,
      "Will": 3040,
      "You": 3041,
      "memb": 3042,
      "sk": 3043,
      "ref": 3044,
      "among": 3045,
      "level": 3046,
      "field": 3047,
      "mag": 3048,
      "ħoyal": 3049,
      "ħyn": 3050,
      "ħices": 3051,
      "ħbs": 3052,
      "ħitar": 3053,
      "Am": 3054,
      "ħiter": 3055,
      "written": 3056,
      "ħinning": 3057,
      "every": 3058,
      "State": 3059,
      "ħestern": 3060,
      "23": 3061,
      "commun": 3062,
      "half": 3063,
      "Pol": 3064,
      "ħbe": 3065,
      "ħroy": 3066,
      "Division": 3067,
      "ħyle": 3068,
      "prop": 3069,
      "ħampions": 3070,
      "further": 3071,
      "repres": 3072,
      "2011": 3073,
      "release": 3074,
      "find": 3075,
      "ħene": 3076,
      "ħenc": 3077,
      "Port": 3078,
      "become": 3079,
      "attempt": 3080,
      "2006": 3081,
      "ħraw": 3082,
      "ħensive": 3083,
      "According": 3084,
      "west": 3085,
      "ħurs": 3086,
      "church": 3087,
      "Although": 3088,
      "strong": 3089,
      "however": 3090,
      "ħried": 3091,
      "days": 3092,
      "ħaugh": 3093,
      "Canad": 3094,
      "ħights": 3095,
      "east": 3096,
      "join": 3097,
      "Count": 3098,
      "ħaly": 3099,
      "ħising": 3100,
      "version": 3101,
      "foot": 3102,
      "beh": 3103,
      "spe": 3104,
      "particular": 3105,
      "conf": 3106,
      "low": 3107,
      "Church": 3108,
      "ħize": 3109,
      "ħebru": 3110,
      "Af": 3111,
      "Gener": 3112,
      "compet": 3113,
      "position": 3114,
      "title": 3115,
      "24": 3116,
      "ħpite": 3117,
      "prof": 3118,
      "ħapp": 3119,
      "military": 3120,
      "26": 3121,
      "Roman": 3122,
      "West": 3123,
      "author": 3124,
      "22": 3125,
      "ħeter": 3126,
      "origin": 3127,
      "ħorts": 3128,
      "ħreen": 3129,
      "order": 3130,
      "League": 3131,
      "ħouther": 3132,
      "ħches": 3133,
      "ħlet": 3134,
      "control": 3135,
      "ħouthern": 3136,
      "Song": 3137,
      "times": 3138,
      "ħipp": 3139,
      "ħaces": 3140,
      "ħittle": 3141,
      "Febru": 3142,
      "band": 3143,
      "February": 3144,
      "ħpress": 3145,
      "fre": 3146,
      "Ass": 3147,
      "less": 3148,
      "gave": 3149,
      "vict": 3150,
      "defe": 3151,
      "ħylan": 3152,
      "Geor": 3153,
      "ħanes": 3154,
      "ħoms": 3155,
      "Dylan": 3156,
      "cover": 3157,
      "ħves": 3158,
      "chang": 3159,
      "reported": 3160,
      "members": 3161,
      "Re": 3162,
      "nort": 3163,
      "enter": 3164,
      "Park": 3165,
      "nov": 3166,
      "ħailed": 3167,
      "ħevision": 3168,
      "produced": 3169,
      "Des": 3170,
      "stat": 3171,
      "ħiment": 3172,
      "total": 3173,
      "ħself": 3174,
      "ħhern": 3175,
      "2012": 3176,
      "Old": 3177,
      "ħared": 3178,
      "ħaying": 3179,
      "ħiety": 3180,
      "ħape": 3181,
      "ħarm": 3182,
      "ħomen": 3183,
      "ħosp": 3184,
      "popular": 3185,
      "28": 3186,
      "fire": 3187,
      "ter": 3188,
      "inf": 3189,
      "production": 3190,
      "Air": 3191,
      "Sim": 3192,
      "tropical": 3193,
      "ħhem": 3194,
      "post": 3195,
      "Jap": 3196,
      "ħisc": 3197,
      "forces": 3198,
      "critic": 3199,
      "point": 3200,
      "ħford": 3201,
      "ħional": 3202,
      "children": 3203,
      "pat": 3204,
      "histor": 3205,
      "having": 3206,
      "ħechn": 3207,
      "include": 3208,
      "cult": 3209,
      "ħably": 3210,
      "Ha": 3211,
      "ħours": 3212,
      "surv": 3213,
      "invol": 3214,
      "influ": 3215,
      "Su": 3216,
      "ħarr": 3217,
      "ħalion": 3218,
      "aff": 3219,
      "lost": 3220,
      "ħaul": 3221,
      "given": 3222,
      "ħatic": 3223,
      "country": 3224,
      "Afric": 3225,
      "want": 3226,
      "ħks": 3227,
      "obs": 3228,
      "young": 3229,
      "Ex": 3230,
      "ħald": 3231,
      "ħoon": 3232,
      "ħwork": 3233,
      "ħush": 3234,
      "signific": 3235,
      "Cent": 3236,
      "Dav": 3237,
      "manag": 3238,
      "ħploy": 3239,
      "General": 3240,
      "equ": 3241,
      "ħots": 3242,
      "press": 3243,
      "2013": 3244,
      "Miss": 3245,
      "ħcon": 3246,
      "comb": 3247,
      "ħength": 3248,
      "eight": 3249,
      "sit": 3250,
      "site": 3251,
      "ħones": 3252,
      "ħreet": 3253,
      "ħades": 3254,
      "seen": 3255,
      "program": 3256,
      "Ev": 3257,
      "body": 3258,
      "making": 3259,
      "never": 3260,
      "match": 3261,
      "fem": 3262,
      "ħither": 3263,
      "stated": 3264,
      "ħuced": 3265,
      "establ": 3266,
      "gen": 3267,
      "read": 3268,
      "ord": 3269,
      "should": 3270,
      "While": 3271,
      "ħearch": 3272,
      "ħsequ": 3273,
      "ħological": 3274,
      "returned": 3275,
      "ħaised": 3276,
      "ħator": 3277,
      "University": 3278,
      "ħaun": 3279,
      "De": 3280,
      "ft": 3281,
      "ħtain": 3282,
      "present": 3283,
      "sound": 3284,
      "frie": 3285,
      "50": 3286,
      "gl": 3287,
      "how": 3288,
      "ħdom": 3289,
      "ħrem": 3290,
      "190": 3291,
      "These": 3292,
      "island": 3293,
      "America": 3294,
      "soc": 3295,
      "struct": 3296,
      "earl": 3297,
      "ships": 3298,
      "announ": 3299,
      "established": 3300,
      "cor": 3301,
      "ħampionship": 3302,
      "27": 3303,
      "Jack": 3304,
      "Se": 3305,
      "god": 3306,
      "ground": 3307,
      "population": 3308,
      "cat": 3309,
      "div": 3310,
      "ħying": 3311,
      "ħges": 3312,
      "ħream": 3313,
      "reached": 3314,
      "ħaint": 3315,
      "exc": 3316,
      "Ire": 3317,
      "ħration": 3318,
      "ħomb": 3319,
      "noted": 3320,
      "away": 3321,
      "ħaf": 3322,
      "ħne": 3323,
      "Black": 3324,
      "friend": 3325,
      "Ireland": 3326,
      "ħigade": 3327,
      "Reg": 3328,
      "lim": 3329,
      "ħination": 3330,
      "throughout": 3331,
      "across": 3332,
      "developed": 3333,
      "thought": 3334,
      "Lond": 3335,
      "Mich": 3336,
      "ħiec": 3337,
      "ħground": 3338,
      "ħering": 3339,
      "seven": 3340,
      "cy": 3341,
      "somet": 3342,
      "ħket": 3343,
      "ħords": 3344,
      "ħogn": 3345,
      "William": 3346,
      "London": 3347,
      "fact": 3348,
      "rad": 3349,
      "right": 3350,
      "introd": 3351,
      "Feder": 3352,
      "good": 3353,
      "ħki": 3354,
      "using": 3355,
      "himself": 3356,
      "development": 3357,
      "ħused": 3358,
      "cast": 3359,
      "ħoo": 3360,
      "black": 3361,
      "ħfic": 3362,
      "ħiness": 3363,
      "destroy": 3364,
      "Cor": 3365,
      "hig": 3366,
      "cou": 3367,
      "felt": 3368,
      "ħidence": 3369,
      "plan": 3370,
      "Australia": 3371,
      "human": 3372,
      "significant": 3373,
      "Gl": 3374,
      "ħirc": 3375,
      "wat": 3376,
      "trav": 3377,
      "performed": 3378,
      "important": 3379,
      "ħivil": 3380,
      "adm": 3381,
      "Atl": 3382,
      "fun": 3383,
      "father": 3384,
      "ħitive": 3385,
      "writing": 3386,
      "Pal": 3387,
      "Rich": 3388,
      "ħeth": 3389,
      "Mag": 3390,
      "miles": 3391,
      "ħantic": 3392,
      "television": 3393,
      "ħosaur": 3394,
      "various": 3395,
      "areas": 3396,
      "ħief": 3397,
      "Cal": 3398,
      "ħael": 3399,
      "ħvers": 3400,
      "tour": 3401,
      "ħimately": 3402,
      "white": 3403,
      "modern": 3404,
      "full": 3405,
      "died": 3406,
      "look": 3407,
      "ten": 3408,
      "ins": 3409,
      "activ": 3410,
      "bo": 3411,
      "bar": 3412,
      "ball": 3413,
      "light": 3414,
      "law": 3415,
      "went": 3416,
      "ħaign": 3417,
      "ħfield": 3418,
      "ħster": 3419,
      "Rober": 3420,
      "ħreek": 3421,
      "ħpression": 3422,
      "need": 3423,
      "prim": 3424,
      "events": 3425,
      "does": 3426,
      "successful": 3427,
      "Road": 3428,
      "ħements": 3429,
      "En": 3430,
      "ħmost": 3431,
      "ħico": 3432,
      "ħective": 3433,
      "ħization": 3434,
      "Cro": 3435,
      "players": 3436,
      "started": 3437,
      "Cr": 3438,
      "James": 3439,
      "mm": 3440,
      "ħcraft": 3441,
      "decl": 3442,
      "night": 3443,
      "suff": 3444,
      "house": 3445,
      "ħned": 3446,
      "ħiting": 3447,
      "see": 3448,
      "feet": 3449,
      "formed": 3450,
      "poem": 3451,
      "fac": 3452,
      "mix": 3453,
      "range": 3454,
      "techn": 3455,
      "ħreg": 3456,
      "ħourn": 3457,
      "elect": 3458,
      "Mount": 3459,
      "sett": 3460,
      "performance": 3461,
      "County": 3462,
      "put": 3463,
      "vill": 3464,
      "ħana": 3465,
      "style": 3466,
      "ħaves": 3467,
      "relations": 3468,
      "building": 3469,
      "Mor": 3470,
      "age": 3471,
      "sum": 3472,
      "too": 3473,
      "force": 3474,
      "ħabor": 3475,
      "caused": 3476,
      "ħoff": 3477,
      "ħepend": 3478,
      "ħna": 3479,
      "ħara": 3480,
      "ħublic": 3481,
      "sw": 3482,
      "ħument": 3483,
      "proc": 3484,
      "novel": 3485,
      "Ang": 3486,
      "pri": 3487,
      "189": 3488,
      "ħiers": 3489,
      "ħino": 3490,
      "ħalth": 3491,
      "ħisted": 3492,
      "ħelling": 3493,
      "created": 3494,
      "official": 3495,
      "ħfall": 3496,
      "ħidd": 3497,
      "Som": 3498,
      "ħday": 3499,
      "2004": 3500,
      "relig": 3501,
      "pit": 3502,
      "ħacy": 3503,
      "2005": 3504,
      "entire": 3505,
      "Ol": 3506,
      "To": 3507,
      "son": 3508,
      "able": 3509,
      "political": 3510,
      "High": 3511,
      "characters": 3512,
      "Sec": 3513,
      "Ham": 3514,
      "get": 3515,
      "others": 3516,
      "construction": 3517,
      "bird": 3518,
      "cert": 3519,
      "national": 3520,
      "pred": 3521,
      "ħee": 3522,
      "ħmb": 3523,
      "ħries": 3524,
      "Town": 3525,
      "cas": 3526,
      "ħways": 3527,
      "ħett": 3528,
      "ħlex": 3529,
      "ħuck": 3530,
      "val": 3531,
      "ħoming": 3532,
      "Hist": 3533,
      "Sw": 3534,
      "fig": 3535,
      "ħgr": 3536,
      "ħample": 3537,
      "discover": 3538,
      "lik": 3539,
      "ħille": 3540,
      "once": 3541,
      "ħplay": 3542,
      "ħficult": 3543,
      "tro": 3544,
      "ħenth": 3545,
      "remained": 3546,
      "located": 3547,
      "promot": 3548,
      "coun": 3549,
      "tradition": 3550,
      "31": 3551,
      "cross": 3552,
      "rock": 3553,
      "ħivid": 3554,
      "scored": 3555,
      "works": 3556,
      "difficult": 3557,
      "coast": 3558,
      "Island": 3559,
      "campaign": 3560,
      "guns": 3561,
      "tre": 3562,
      "stars": 3563,
      "meet": 3564,
      "completed": 3565,
      "Australian": 3566,
      "Grand": 3567,
      "announced": 3568,
      "rank": 3569,
      "region": 3570,
      "Cup": 3571,
      "Me": 3572,
      "hold": 3573,
      "ħoid": 3574,
      "ħck": 3575,
      "Kingdom": 3576,
      "nuc": 3577,
      "squ": 3578,
      "ħomes": 3579,
      "enc": 3580,
      "grow": 3581,
      "ħitted": 3582,
      "super": 3583,
      "chart": 3584,
      "Company": 3585,
      "fav": 3586,
      "little": 3587,
      "ħique": 3588,
      "conn": 3589,
      "let": 3590,
      "ħenced": 3591,
      "front": 3592,
      "ħrought": 3593,
      "instead": 3594,
      "help": 3595,
      "ħorse": 3596,
      "29": 3597,
      "ħament": 3598,
      "added": 3599,
      "circ": 3600,
      "ħhere": 3601,
      "ħomm": 3602,
      "ħomp": 3603,
      "ħleet": 3604,
      "least": 3605,
      "followed": 3606,
      "Bill": 3607,
      "born": 3608,
      "ħcil": 3609,
      "ħless": 3610,
      "know": 3611,
      "peak": 3612,
      "appeared": 3613,
      "killed": 3614,
      "southern": 3615,
      "ħmar": 3616,
      "ħemy": 3617,
      "ħangu": 3618,
      "months": 3619,
      "originally": 3620,
      "process": 3621,
      "wife": 3622,
      "ħoice": 3623,
      "comment": 3624,
      "Army": 3625,
      "ħiol": 3626,
      "stri": 3627,
      "ħumb": 3628,
      "David": 3629,
      "fif": 3630,
      "loss": 3631,
      "mother": 3632,
      "ħota": 3633,
      "Sy": 3634,
      "hurricane": 3635,
      "ħius": 3636,
      "ħlement": 3637,
      "sex": 3638,
      "associ": 3639,
      "cell": 3640,
      "mass": 3641,
      "women": 3642,
      "goal": 3643,
      "ħhys": 3644,
      "Music": 3645,
      "40": 3646,
      "eastern": 3647,
      "non": 3648,
      "ħston": 3649,
      "ħantry": 3650,
      "agre": 3651,
      "ident": 3652,
      "Mon": 3653,
      "relationship": 3654,
      "Act": 3655,
      "aud": 3656,
      "award": 3657,
      "ħract": 3658,
      "2003": 3659,
      "185": 3660,
      "critics": 3661,
      "broad": 3662,
      "Pres": 3663,
      "bus": 3664,
      "anim": 3665,
      "eventually": 3666,
      "ħata": 3667,
      "features": 3668,
      "God": 3669,
      "Other": 3670,
      "voc": 3671,
      "ħolution": 3672,
      "ħaper": 3673,
      "recogn": 3674,
      "2015": 3675,
      "Har": 3676,
      "far": 3677,
      "live": 3678,
      "ħully": 3679,
      "project": 3680,
      "France": 3681,
      "Rock": 3682,
      "appoin": 3683,
      "fourth": 3684,
      "Ir": 3685,
      "Ser": 3686,
      "route": 3687,
      "taken": 3688,
      "ħpts": 3689,
      "ħiction": 3690,
      "estim": 3691,
      "Two": 3692,
      "mount": 3693,
      "ħgin": 3694,
      "served": 3695,
      "ħliam": 3696,
      "ħistic": 3697,
      "Flor": 3698,
      "Ant": 3699,
      "Ber": 3700,
      "Mad": 3701,
      "ħrated": 3702,
      "ħani": 3703,
      "commer": 3704,
      "ħilla": 3705,
      "ħography": 3706,
      "lack": 3707,
      "ħama": 3708,
      "ħchie": 3709,
      "decided": 3710,
      "damage": 3711,
      "aver": 3712,
      "ħcher": 3713,
      "ħutes": 3714,
      "heavy": 3715,
      "ħigned": 3716,
      "ħazine": 3717,
      "represent": 3718,
      "either": 3719,
      "fight": 3720,
      "ħoom": 3721,
      "insp": 3722,
      "Battalion": 3723,
      "ħiation": 3724,
      "prote": 3725,
      "proble": 3726,
      "separ": 3727,
      "impro": 3728,
      "ħency": 3729,
      "ħought": 3730,
      "special": 3731,
      "behind": 3732,
      "Robert": 3733,
      "Love": 3734,
      "Rev": 3735,
      "toget": 3736,
      "ħecut": 3737,
      "individ": 3738,
      "believed": 3739,
      "together": 3740,
      "ħring": 3741,
      "ħida": 3742,
      "arg": 3743,
      "arm": 3744,
      "quar": 3745,
      "ħliament": 3746,
      "clear": 3747,
      "ħica": 3748,
      "clos": 3749,
      "Royal": 3750,
      "mater": 3751,
      "ħcial": 3752,
      "dev": 3753,
      "playing": 3754,
      "Carey": 3755,
      "Red": 3756,
      "dou": 3757,
      "ħaching": 3758,
      "Hen": 3759,
      "Med": 3760,
      "ħiber": 3761,
      "ħuit": 3762,
      "ħarn": 3763,
      "move": 3764,
      "battle": 3765,
      "Min": 3766,
      "Mex": 3767,
      "bi": 3768,
      "creat": 3769,
      "langu": 3770,
      "round": 3771,
      "vol": 3772,
      "example": 3773,
      "close": 3774,
      "Du": 3775,
      "Some": 3776,
      "ve": 3777,
      "almost": 3778,
      "188": 3779,
      "ħened": 3780,
      "service": 3781,
      "curr": 3782,
      "sel": 3783,
      "sour": 3784,
      "interv": 3785,
      "leading": 3786,
      "European": 3787,
      "My": 3788,
      "Part": 3789,
      "fall": 3790,
      "generally": 3791,
      "Federer": 3792,
      "saw": 3793,
      "ħators": 3794,
      "towards": 3795,
      "ħential": 3796,
      "ħodes": 3797,
      "White": 3798,
      "ħspec": 3799,
      "occur": 3800,
      "opened": 3801,
      "elements": 3802,
      "35": 3803,
      "Co": 3804,
      "miss": 3805,
      "ħhic": 3806,
      "general": 3807,
      "brought": 3808,
      "ħuter": 3809,
      "ħgar": 3810,
      "ħoring": 3811,
      "Brigade": 3812,
      "weeks": 3813,
      "Bra": 3814,
      "Game": 3815,
      "Wales": 3816,
      "draw": 3817,
      "mot": 3818,
      "ħhing": 3819,
      "ħceed": 3820,
      "International": 3821,
      "ħrict": 3822,
      "finished": 3823,
      "bur": 3824,
      "laun": 3825,
      "ħalt": 3826,
      "ħstit": 3827,
      "ste": 3828,
      "ħending": 3829,
      "Im": 3830,
      "Kh": 3831,
      "Viet": 3832,
      "host": 3833,
      "wall": 3834,
      "regular": 3835,
      "highway": 3836,
      "study": 3837,
      "featured": 3838,
      "hy": 3839,
      "ħanch": 3840,
      "ħask": 3841,
      "central": 3842,
      "aircraft": 3843,
      "net": 3844,
      "ħeum": 3845,
      "ħirl": 3846,
      "indust": 3847,
      "East": 3848,
      "Mont": 3849,
      "hon": 3850,
      "ħboard": 3851,
      "ħordan": 3852,
      "Fir": 3853,
      "ħval": 3854,
      "reb": 3855,
      "points": 3856,
      "fund": 3857,
      "inform": 3858,
      "accept": 3859,
      "directed": 3860,
      "action": 3861,
      "burn": 3862,
      "mi": 3863,
      "meas": 3864,
      "wid": 3865,
      "ħky": 3866,
      "ħeler": 3867,
      "Championship": 3868,
      "director": 3869,
      "provided": 3870,
      "Follow": 3871,
      "cut": 3872,
      "ħania": 3873,
      "ħicated": 3874,
      "ħwood": 3875,
      "186": 3876,
      "flood": 3877,
      "individual": 3878,
      "Jordan": 3879,
      "sequ": 3880,
      "upon": 3881,
      "ħeption": 3882,
      "Rep": 3883,
      "ħaps": 3884,
      "mean": 3885,
      "appearance": 3886,
      "Gal": 3887,
      "Jew": 3888,
      "yard": 3889,
      "ħores": 3890,
      "ħellow": 3891,
      "From": 3892,
      "earlier": 3893,
      "Ke": 3894,
      "king": 3895,
      "ħatin": 3896,
      "ħander": 3897,
      "Sl": 3898,
      "cost": 3899,
      "rather": 3900,
      "ħanding": 3901,
      "2014": 3902,
      "subsequ": 3903,
      "female": 3904,
      "Atlantic": 3905,
      "troops": 3906,
      "Od": 3907,
      "ill": 3908,
      "stru": 3909,
      "ħishing": 3910,
      "ħmedi": 3911,
      "Christian": 3912,
      "Cap": 3913,
      "Mary": 3914,
      "river": 3915,
      "largest": 3916,
      "victory": 3917,
      "Following": 3918,
      "500": 3919,
      "House": 3920,
      "qual": 3921,
      "ħsel": 3922,
      "employ": 3923,
      "operations": 3924,
      "Hero": 3925,
      "particularly": 3926,
      "George": 3927,
      "manager": 3928,
      "Dr": 3929,
      "achie": 3930,
      "ħerous": 3931,
      "ħouri": 3932,
      "19th": 3933,
      "prob": 3934,
      "ħington": 3935,
      "fort": 3936,
      "opening": 3937,
      "wanted": 3938,
      "Hol": 3939,
      "cop": 3940,
      "ħthlet": 3941,
      "ħanese": 3942,
      "northern": 3943,
      "Mac": 3944,
      "foc": 3945,
      "yards": 3946,
      "ħosition": 3947,
      "exist": 3948,
      "evidence": 3949,
      "Play": 3950,
      "ħcent": 3951,
      "ħita": 3952,
      "reason": 3953,
      "Phil": 3954,
      "Florida": 3955,
      "Em": 3956,
      "Mo": 3957,
      "Wal": 3958,
      "member": 3959,
      "ħhead": 3960,
      "pract": 3961,
      "Bay": 3962,
      "saying": 3963,
      "ħiff": 3964,
      "Street": 3965,
      "outside": 3966,
      "crew": 3967,
      "allowed": 3968,
      "possible": 3969,
      "engine": 3970,
      "Most": 3971,
      "Paul": 3972,
      "viol": 3973,
      "ħuk": 3974,
      "ħuel": 3975,
      "ħatural": 3976,
      "Oliv": 3977,
      "Mark": 3978,
      "Wil": 3979,
      "ly": 3980,
      "mer": 3981,
      "neg": 3982,
      "past": 3983,
      "ħwest": 3984,
      "stage": 3985,
      "ħago": 3986,
      "McC": 3987,
      "hours": 3988,
      "ħule": 3989,
      "ħigg": 3990,
      "whom": 3991,
      "respons": 3992,
      "ħconom": 3993,
      "Ac": 3994,
      "Day": 3995,
      "case": 3996,
      "ħems": 3997,
      "ħude": 3998,
      "ħartment": 3999,
      "poor": 4000,
      "Missouri": 4001,
      "material": 4002,
      "free": 4003,
      "ħased": 4004,
      "2001": 4005,
      "worked": 4006,
      "regard": 4007,
      "conduct": 4008,
      "But": 4009,
      "gre": 4010,
      "length": 4011,
      "mach": 4012,
      "nec": 4013,
      "ħih": 4014,
      "ħills": 4015,
      "territ": 4016,
      "Tech": 4017,
      "gold": 4018,
      "ħurt": 4019,
      "plann": 4020,
      "working": 4021,
      "che": 4022,
      "ħbor": 4023,
      "ħvert": 4024,
      "Tor": 4025,
      "love": 4026,
      "rul": 4027,
      "ħaries": 4028,
      "ħites": 4029,
      "quick": 4030,
      "Vir": 4031,
      "ħnow": 4032,
      "ħmen": 4033,
      "designed": 4034,
      "ħtt": 4035,
      "ħfor": 4036,
      "ħhens": 4037,
      "contract": 4038,
      "football": 4039,
      "Bus": 4040,
      "Qu": 4041,
      "San": 4042,
      "lear": 4043,
      "mult": 4044,
      "praised": 4045,
      "Indian": 4046,
      "Best": 4047,
      "esc": 4048,
      "ren": 4049,
      "treat": 4050,
      "ħonst": 4051,
      "ħoles": 4052,
      "forced": 4053,
      "station": 4054,
      "remains": 4055,
      "construct": 4056,
      "avail": 4057,
      "First": 4058,
      "nomin": 4059,
      "ħirth": 4060,
      "187": 4061,
      "goals": 4062,
      "Michael": 4063,
      "Val": 4064,
      "ħuation": 4065,
      "ħvest": 4066,
      "think": 4067,
      "winds": 4068,
      "Sm": 4069,
      "Squ": 4070,
      "civil": 4071,
      "ħming": 4072,
      "ħheast": 4073,
      "ħari": 4074,
      "diss": 4075,
      "increased": 4076,
      "Egy": 4077,
      "pers": 4078,
      "ħronic": 4079,
      "effect": 4080,
      "previously": 4081,
      "Egypt": 4082,
      "Fe": 4083,
      "ħwh": 4084,
      "ħula": 4085,
      "above": 4086,
      "Thom": 4087,
      "soon": 4088,
      "replaced": 4089,
      "commercial": 4090,
      "ħuce": 4091,
      "ħitz": 4092,
      "ħasion": 4093,
      "ħributed": 4094,
      "interest": 4095,
      "Richard": 4096,
      "App": 4097,
      "Whe": 4098,
      "must": 4099,
      "ħving": 4100,
      "ħjects": 4101,
      "ħBC": 4102,
      "ħerved": 4103,
      "ħurb": 4104,
      "ħolic": 4105,
      "ask": 4106,
      "Carol": 4107,
      "Super": 4108,
      "business": 4109,
      "interview": 4110,
      "Hel": 4111,
      "pain": 4112,
      "ħco": 4113,
      "ħows": 4114,
      "Despite": 4115,
      "Que": 4116,
      "ħste": 4117,
      "ħady": 4118,
      "ħlege": 4119,
      "ħids": 4120,
      "ħosing": 4121,
      "ħump": 4122,
      "ħabit": 4123,
      "writer": 4124,
      "Brown": 4125,
      "quarter": 4126,
      "trib": 4127,
      "threat": 4128,
      "ħaker": 4129,
      "Henry": 4130,
      "Sun": 4131,
      "mph": 4132,
      "ħAF": 4133,
      "ħatory": 4134,
      "units": 4135,
      "Canada": 4136,
      "estimated": 4137,
      "ħusion": 4138,
      "ħulf": 4139,
      "ħibility": 4140,
      "specific": 4141,
      "court": 4142,
      "Oldham": 4143,
      "36": 4144,
      "pur": 4145,
      "ħacing": 4146,
      "surf": 4147,
      "claimed": 4148,
      "joined": 4149,
      "Japanese": 4150,
      "highest": 4151,
      "Times": 4152,
      "pen": 4153,
      "inj": 4154,
      "ħulated": 4155,
      "placed": 4156,
      "unc": 4157,
      "ħription": 4158,
      "involved": 4159,
      "President": 4160,
      "ħecutive": 4161,
      "Govern": 4162,
      "Pe": 4163,
      "fly": 4164,
      "western": 4165,
      "ħcast": 4166,
      "ħgl": 4167,
      "priv": 4168,
      "ħends": 4169,
      "signed": 4170,
      "discuss": 4171,
      "suggested": 4172,
      "45": 4173,
      "Mos": 4174,
      "Res": 4175,
      "ħlt": 4176,
      "ħband": 4177,
      "ħector": 4178,
      "ħelled": 4179,
      "183": 4180,
      "parts": 4181,
      "Ag": 4182,
      "Card": 4183,
      "Gold": 4184,
      "ħault": 4185,
      "ħayed": 4186,
      "intens": 4187,
      "India": 4188,
      "profession": 4189,
      "Olivier": 4190,
      "Hall": 4191,
      "Later": 4192,
      "School": 4193,
      "hous": 4194,
      "ħiding": 4195,
      "proper": 4196,
      "change": 4197,
      "league": 4198,
      "itself": 4199,
      "Arab": 4200,
      "invest": 4201,
      "Vietn": 4202,
      "00": 4203,
      "Cong": 4204,
      "Not": 4205,
      "don": 4206,
      "ey": 4207,
      "shot": 4208,
      "ħanna": 4209,
      "ide": 4210,
      "Irish": 4211,
      "average": 4212,
      "Mexico": 4213,
      "Var": 4214,
      "hard": 4215,
      "op": 4216,
      "taking": 4217,
      "ħching": 4218,
      "ħume": 4219,
      "emb": 4220,
      "available": 4221,
      "ħville": 4222,
      "international": 4223,
      "ħete": 4224,
      "ħaph": 4225,
      "heav": 4226,
      "except": 4227,
      "scene": 4228,
      "ħails": 4229,
      "transfer": 4230,
      "brother": 4231,
      "break": 4232,
      "ħready": 4233,
      "introduced": 4234,
      "Ne": 4235,
      "Pac": 4236,
      "hit": 4237,
      "ħrd": 4238,
      "whose": 4239,
      "ħapt": 4240,
      "ħhedral": 4241,
      "recording": 4242,
      "respect": 4243,
      "village": 4244,
      "race": 4245,
      "wood": 4246,
      "stop": 4247,
      "react": 4248,
      "ħporary": 4249,
      "cycl": 4250,
      "travel": 4251,
      "Thomas": 4252,
      "Bo": 4253,
      "phys": 4254,
      "ħximately": 4255,
      "ħections": 4256,
      "express": 4257,
      "grad": 4258,
      "religious": 4259,
      "Don": 4260,
      "mem": 4261,
      "ħties": 4262,
      "ħze": 4263,
      "ħenes": 4264,
      "ħachel": 4265,
      "ħpper": 4266,
      "educ": 4267,
      "network": 4268,
      "NY": 4269,
      "cru": 4270,
      "nine": 4271,
      "names": 4272,
      "told": 4273,
      "prepar": 4274,
      "remov": 4275,
      "Britain": 4276,
      "shows": 4277,
      "damaged": 4278,
      "Dev": 4279,
      "ke": 4280,
      "piec": 4281,
      "ħiqu": 4282,
      "ħarily": 4283,
      "abs": 4284,
      "independ": 4285,
      "Scient": 4286,
      "capital": 4287,
      "turned": 4288,
      "increasing": 4289,
      "social": 4290,
      "Republic": 4291,
      "Great": 4292,
      "Hurricane": 4293,
      "cal": 4294,
      "give": 4295,
      "lines": 4296,
      "chap": 4297,
      "That": 4298,
      "Guitar": 4299,
      "structure": 4300,
      "Many": 4301,
      "bill": 4302,
      "184": 4303,
      "despite": 4304,
      "Art": 4305,
      "feel": 4306,
      "nearly": 4307,
      "determ": 4308,
      "appointed": 4309,
      "Zeal": 4310,
      "size": 4311,
      "ħodies": 4312,
      "ħunk": 4313,
      "Union": 4314,
      "community": 4315,
      "ap": 4316,
      "den": 4317,
      "date": 4318,
      "econom": 4319,
      "liter": 4320,
      "ħgo": 4321,
      "ħhib": 4322,
      "ħateg": 4323,
      "surround": 4324,
      "passed": 4325,
      "fut": 4326,
      "might": 4327,
      "withd": 4328,
      "ħoph": 4329,
      "ħbert": 4330,
      "immedi": 4331,
      "ħinese": 4332,
      "occup": 4333,
      "establish": 4334,
      "debut": 4335,
      "initially": 4336,
      "ħosaurus": 4337,
      "certain": 4338,
      "ħspecially": 4339,
      "pot": 4340,
      "winning": 4341,
      "ħgu": 4342,
      "tow": 4343,
      "ħilities": 4344,
      "ħetic": 4345,
      "already": 4346,
      "deal": 4347,
      "ħability": 4348,
      "assist": 4349,
      "base": 4350,
      "going": 4351,
      "particip": 4352,
      "Pacific": 4353,
      "60": 4354,
      "Jin": 4355,
      "failed": 4356,
      "rain": 4357,
      "rap": 4358,
      "ħha": 4359,
      "ħication": 4360,
      "states": 4361,
      "ħrian": 4362,
      "Chinese": 4363,
      "disp": 4364,
      "Early": 4365,
      "archae": 4366,
      "Zealand": 4367,
      "Ever": 4368,
      "aut": 4369,
      "doc": 4370,
      "especially": 4371,
      "ħises": 4372,
      "training": 4373,
      "according": 4374,
      "transport": 4375,
      "language": 4376,
      "probably": 4377,
      "Cath": 4378,
      "Sing": 4379,
      "food": 4380,
      "key": 4381,
      "2002": 4382,
      "ħification": 4383,
      "minor": 4384,
      "issue": 4385,
      "Film": 4386,
      "Law": 4387,
      "Ma": 4388,
      "Pri": 4389,
      "Tom": 4390,
      "cel": 4391,
      "dro": 4392,
      "daugh": 4393,
      "ħnel": 4394,
      "ħden": 4395,
      "ħirt": 4396,
      "studio": 4397,
      "III": 4398,
      "Wheeler": 4399,
      "Mal": 4400,
      "Peter": 4401,
      "ħzz": 4402,
      "forward": 4403,
      "ħowl": 4404,
      "spent": 4405,
      "includes": 4406,
      "ħference": 4407,
      "arrived": 4408,
      "ordered": 4409,
      "History": 4410,
      "Awards": 4411,
      "Sch": 4412,
      "ħands": 4413,
      "ħaval": 4414,
      "army": 4415,
      "enough": 4416,
      "remaining": 4417,
      "block": 4418,
      "visit": 4419,
      "personal": 4420,
      "Canadian": 4421,
      "Angel": 4422,
      "ħstein": 4423,
      "Navy": 4424,
      "male": 4425,
      "ħlor": 4426,
      "ħfect": 4427,
      "ħonse": 4428,
      "ħrick": 4429,
      "sometimes": 4430,
      "mixed": 4431,
      "Off": 4432,
      "Ter": 4433,
      "UK": 4434,
      "di": 4435,
      "ħaut": 4436,
      "ħback": 4437,
      "ħoul": 4438,
      "come": 4439,
      "complete": 4440,
      "approximately": 4441,
      "reviews": 4442,
      "required": 4443,
      "Associ": 4444,
      "lower": 4445,
      "latter": 4446,
      "ħios": 4447,
      "touch": 4448,
      "Star": 4449,
      "ħquar": 4450,
      "imm": 4451,
      "center": 4452,
      "Hot": 4453,
      "Penn": 4454,
      "Soc": 4455,
      "Tel": 4456,
      "ħlymp": 4457,
      "ħults": 4458,
      "ħagon": 4459,
      "Str": 4460,
      "remain": 4461,
      "beginning": 4462,
      "Africa": 4463,
      "Coun": 4464,
      "Olymp": 4465,
      "rail": 4466,
      "ħdown": 4467,
      "ħinist": 4468,
      "ħonc": 4469,
      "ħorial": 4470,
      "ħstant": 4471,
      "ħaby": 4472,
      "2000": 4473,
      "reveal": 4474,
      "ħports": 4475,
      "Virgin": 4476,
      "38": 4477,
      "Creek": 4478,
      "journ": 4479,
      "sem": 4480,
      "woman": 4481,
      "Stud": 4482,
      "decision": 4483,
      "limited": 4484,
      "Nort": 4485,
      "ħto": 4486,
      "ħunder": 4487,
      "dead": 4488,
      "Stev": 4489,
      "usually": 4490,
      "better": 4491,
      "students": 4492,
      "slow": 4493,
      "additional": 4494,
      "changes": 4495,
      "Regiment": 4496,
      "Rachel": 4497,
      "ħiest": 4498,
      "ħedy": 4499,
      "ħecting": 4500,
      "president": 4501,
      "running": 4502,
      "response": 4503,
      "ħoor": 4504,
      "ħzy": 4505,
      "ħurg": 4506,
      "ħadron": 4507,
      "ħease": 4508,
      "ended": 4509,
      "positive": 4510,
      "Scott": 4511,
      "concern": 4512,
      "larger": 4513,
      "Award": 4514,
      "Je": 4515,
      "TV": 4516,
      "mention": 4517,
      "sch": 4518,
      "ħerat": 4519,
      "quest": 4520,
      "supported": 4521,
      "magazine": 4522,
      "Fort": 4523,
      "Jer": 4524,
      "Mer": 4525,
      "wide": 4526,
      "ħney": 4527,
      "depression": 4528,
      "notes": 4529,
      "score": 4530,
      "police": 4531,
      "type": 4532,
      "Charles": 4533,
      "observ": 4534,
      "pressure": 4535,
      "prior": 4536,
      "birth": 4537,
      "ħreak": 4538,
      "ħenty": 4539,
      "tex": 4540,
      "birds": 4541,
      "ħme": 4542,
      "ħinct": 4543,
      "shown": 4544,
      "related": 4545,
      "Frank": 4546,
      "1995": 4547,
      "Billboard": 4548,
      "lyric": 4549,
      "75": 4550,
      "face": 4551,
      "ur": 4552,
      "ħuments": 4553,
      "ħrief": 4554,
      "feature": 4555,
      "fifth": 4556,
      "future": 4557,
      "Camp": 4558,
      "Sam": 4559,
      "Under": 4560,
      "appl": 4561,
      "provide": 4562,
      "defeated": 4563,
      "Hill": 4564,
      "Rose": 4565,
      "der": 4566,
      "staff": 4567,
      "anc": 4568,
      "discovered": 4569,
      "La": 4570,
      "Oper": 4571,
      "Pat": 4572,
      "Route": 4573,
      "sat": 4574,
      "sil": 4575,
      "section": 4576,
      "ħuf": 4577,
      "ħifa": 4578,
      "temper": 4579,
      "Japan": 4580,
      "Bel": 4581,
      "FI": 4582,
      "Western": 4583,
      "cm": 4584,
      "doll": 4585,
      "ħbers": 4586,
      "ħhou": 4587,
      "ħenon": 4588,
      "confl": 4589,
      "ħriage": 4590,
      "ħishop": 4591,
      "contem": 4592,
      "becoming": 4593,
      "frequ": 4594,
      "Light": 4595,
      "word": 4596,
      "ħrate": 4597,
      "ħeding": 4598,
      "ħrael": 4599,
      "Wood": 4600,
      "Year": 4601,
      "ħgn": 4602,
      "ħaring": 4603,
      "ħleg": 4604,
      "ħaven": 4605,
      "ħunt": 4606,
      "exam": 4607,
      "ħoke": 4608,
      "ħoys": 4609,
      "smaller": 4610,
      "Tur": 4611,
      "domin": 4612,
      "ħuing": 4613,
      "ħera": 4614,
      "ħitte": 4615,
      "ħidents": 4616,
      "ħpped": 4617,
      "intended": 4618,
      "percent": 4619,
      "screen": 4620,
      "indic": 4621,
      "colon": 4622,
      "groups": 4623,
      "idea": 4624,
      "Scientology": 4625,
      "fleet": 4626,
      "ħtr": 4627,
      "ħiforn": 4628,
      "themsel": 4629,
      "mostly": 4630,
      "metres": 4631,
      "conclud": 4632,
      "Haifa": 4633,
      "radio": 4634,
      "professional": 4635,
      "themselves": 4636,
      "Russ": 4637,
      "ħanies": 4638,
      "ħiano": 4639,
      "ħples": 4640,
      "research": 4641,
      "2016": 4642,
      "musical": 4643,
      "minutes": 4644,
      "captured": 4645,
      "referred": 4646,
      "Croat": 4647,
      "likely": 4648,
      "surface": 4649,
      "Mil": 4650,
      "Since": 4651,
      "pair": 4652,
      "ħanz": 4653,
      "ħanish": 4654,
      "ħimate": 4655,
      "ħcean": 4656,
      "ħption": 4657,
      "office": 4658,
      "Parliament": 4659,
      "largely": 4660,
      "problems": 4661,
      "Association": 4662,
      "How": 4663,
      "Sov": 4664,
      "lab": 4665,
      "link": 4666,
      "test": 4667,
      "und": 4668,
      "ħror": 4669,
      "ħrom": 4670,
      "ħasy": 4671,
      "ħrect": 4672,
      "progress": 4673,
      "media": 4674,
      "Portug": 4675,
      "entered": 4676,
      "summer": 4677,
      "ħquarters": 4678,
      "Nic": 4679,
      "Ott": 4680,
      "Ver": 4681,
      "makes": 4682,
      "ħiser": 4683,
      "ħisions": 4684,
      "Inf": 4685,
      "ħorning": 4686,
      "moving": 4687,
      "Israel": 4688,
      "Earth": 4689,
      "Up": 4690,
      "ħship": 4691,
      "ħgen": 4692,
      "contains": 4693,
      "ens": 4694,
      "money": 4695,
      "Californ": 4696,
      "constructed": 4697,
      "keep": 4698,
      "Bey": 4699,
      "fail": 4700,
      "voice": 4701,
      "ħjected": 4702,
      "inn": 4703,
      "Inter": 4704,
      "sea": 4705,
      "1999": 4706,
      "account": 4707,
      "Council": 4708,
      "Haw": 4709,
      "Ross": 4710,
      "Sur": 4711,
      "nature": 4712,
      "self": 4713,
      "ħiva": 4714,
      "adop": 4715,
      "ħylv": 4716,
      "effects": 4717,
      "guitar": 4718,
      "arrang": 4719,
      "Galvest": 4720,
      "celeb": 4721,
      "Galveston": 4722,
      "Over": 4723,
      "mor": 4724,
      "ħsis": 4725,
      "ħwell": 4726,
      "ħatively": 4727,
      "ħicted": 4728,
      "stories": 4729,
      "Chic": 4730,
      "grant": 4731,
      "ħonym": 4732,
      "majority": 4733,
      "listed": 4734,
      "ranked": 4735,
      "Jewish": 4736,
      "ħkan": 4737,
      "consist": 4738,
      "create": 4739,
      "experience": 4740,
      "coin": 4741,
      "ħhet": 4742,
      "ħurity": 4743,
      "leaving": 4744,
      "ħanks": 4745,
      "Brad": 4746,
      "meth": 4747,
      "critical": 4748,
      "ħhester": 4749,
      "favor": 4750,
      "schol": 4751,
      "33": 4752,
      "80": 4753,
      "Mart": 4754,
      "brief": 4755,
      "ħrest": 4756,
      "ħining": 4757,
      "thus": 4758,
      "ħowler": 4759,
      "ħously": 4760,
      "earth": 4761,
      "Another": 4762,
      "controll": 4763,
      "primary": 4764,
      "ħeratops": 4765,
      "Serv": 4766,
      "lived": 4767,
      "ħger": 4768,
      "ħpool": 4769,
      "ħoud": 4770,
      "ħership": 4771,
      "always": 4772,
      "ħandon": 4773,
      "deep": 4774,
      "underst": 4775,
      "films": 4776,
      "location": 4777,
      "runs": 4778,
      "officers": 4779,
      "gods": 4780,
      "agreed": 4781,
      "lyrics": 4782,
      "2nd": 4783,
      "Ben": 4784,
      "Del": 4785,
      "ħawn": 4786,
      "ħesh": 4787,
      "ħchange": 4788,
      "ħipal": 4789,
      "ħteen": 4790,
      "object": 4791,
      "ħospital": 4792,
      "launched": 4793,
      "California": 4794,
      "ded": 4795,
      "ħdle": 4796,
      "ħaches": 4797,
      "analy": 4798,
      "ħillery": 4799,
      "traff": 4800,
      "ħorder": 4801,
      "prem": 4802,
      "minute": 4803,
      "teams": 4804,
      "culture": 4805,
      "counter": 4806,
      "quickly": 4807,
      "Catholic": 4808,
      "Form": 4809,
      "If": 4810,
      "Mr": 4811,
      "fans": 4812,
      "ħuff": 4813,
      "ħyc": 4814,
      "amb": 4815,
      "meant": 4816,
      "episodes": 4817,
      "proposed": 4818,
      "occurred": 4819,
      "Chicago": 4820,
      "400": 4821,
      "Saint": 4822,
      "Te": 4823,
      "ħoir": 4824,
      "ħma": 4825,
      "ħros": 4826,
      "ħimum": 4827,
      "ħbery": 4828,
      "whether": 4829,
      "assigned": 4830,
      "access": 4831,
      "increase": 4832,
      "suggest": 4833,
      "32": 4834,
      "Bec": 4835,
      "Latin": 4836,
      "Tre": 4837,
      "cred": 4838,
      "dram": 4839,
      "hop": 4840,
      "vot": 4841,
      "ħoes": 4842,
      "ħAS": 4843,
      "ħumn": 4844,
      "Ital": 4845,
      "cann": 4846,
      "forms": 4847,
      "appears": 4848,
      "poet": 4849,
      "defeat": 4850,
      "changed": 4851,
      "destroyed": 4852,
      "traffic": 4853,
      "Kr": 4854,
      "Nix": 4855,
      "log": 4856,
      "tons": 4857,
      "ħiant": 4858,
      "ħmas": 4859,
      "trade": 4860,
      "commission": 4861,
      "Arch": 4862,
      "longer": 4863,
      "Central": 4864,
      "Enter": 4865,
      "meaning": 4866,
      "Mey": 4867,
      "Os": 4868,
      "Sever": 4869,
      "bound": 4870,
      "job": 4871,
      "mom": 4872,
      "ħtained": 4873,
      "ħanced": 4874,
      "ħortun": 4875,
      "princ": 4876,
      "Alice": 4877,
      "theme": 4878,
      "numbers": 4879,
      "Scot": 4880,
      "ħundred": 4881,
      "soldiers": 4882,
      "competition": 4883,
      "nucle": 4884,
      "Northern": 4885,
      "Camb": 4886,
      "Dj": 4887,
      "Tex": 4888,
      "bomb": 4889,
      "girl": 4890,
      "kil": 4891,
      "lo": 4892,
      "ħón": 4893,
      "asp": 4894,
      "ħthing": 4895,
      "reach": 4896,
      "leave": 4897,
      "ħraf": 4898,
      "ħlands": 4899,
      "attract": 4900,
      "newsp": 4901,
      "acqu": 4902,
      "carried": 4903,
      "awarded": 4904,
      "focus": 4905,
      "300": 4906,
      "ħitual": 4907,
      "1998": 4908,
      "concert": 4909,
      "consider": 4910,
      "conducted": 4911,
      "private": 4912,
      "daughter": 4913,
      "70": 4914,
      "Jam": 4915,
      "Tw": 4916,
      "natural": 4917,
      "ħken": 4918,
      "ħNA": 4919,
      "ħanas": 4920,
      "ħrown": 4921,
      "env": 4922,
      "Alkan": 4923,
      "overall": 4924,
      "records": 4925,
      "Second": 4926,
      "subsequently": 4927,
      "BC": 4928,
      "Cour": 4929,
      "Dep": 4930,
      "Liver": 4931,
      "Villa": 4932,
      "cause": 4933,
      "emer": 4934,
      "ran": 4935,
      "ult": 4936,
      "ħgian": 4937,
      "ħitation": 4938,
      "tourn": 4939,
      "thick": 4940,
      "ħusband": 4941,
      "deg": 4942,
      "plans": 4943,
      "dism": 4944,
      "anti": 4945,
      "fighting": 4946,
      "current": 4947,
      "Its": 4948,
      "box": 4949,
      "kind": 4950,
      "lay": 4951,
      "sus": 4952,
      "tar": 4953,
      "takes": 4954,
      "ħitor": 4955,
      "ħitude": 4956,
      "rein": 4957,
      "whole": 4958,
      "ħaging": 4959,
      "shoot": 4960,
      "uns": 4961,
      "1993": 4962,
      "election": 4963,
      "Battle": 4964,
      "Polish": 4965,
      "influence": 4966,
      "commented": 4967,
      "broadcast": 4968,
      "double": 4969,
      "industry": 4970,
      "Go": 4971,
      "Minn": 4972,
      "Sol": 4973,
      "Tay": 4974,
      "Tour": 4975,
      "ħlo": 4976,
      "serious": 4977,
      "bring": 4978,
      "finally": 4979,
      "asked": 4980,
      "Nixon": 4981,
      "Liverpool": 4982,
      "1st": 4983,
      "jud": 4984,
      "upper": 4985,
      "ħbar": 4986,
      "throw": 4987,
      "ħowers": 4988,
      "ħalled": 4989,
      "ħells": 4990,
      "compared": 4991,
      "centre": 4992,
      "ending": 4993,
      "Somers": 4994,
      "ħstitute": 4995,
      "greater": 4996,
      "method": 4997,
      "47": 4998,
      "Back": 4999,
      "Lady": 5000,
      "done": 5001,
      "purch": 5002,
      "ħeds": 5003,
      "ħarch": 5004,
      "ħolk": 5005,
      "ħistics": 5006,
      "unable": 5007,
      "flight": 5008,
      "ħologist": 5009,
      "positions": 5010,
      "accomp": 5011,
      "ħitting": 5012,
      "married": 5013,
      "ħaught": 5014,
      "ħittee": 5015,
      "Texas": 5016,
      "39": 5017,
      "Foot": 5018,
      "Hum": 5019,
      "athlet": 5020,
      "our": 5021,
      "tor": 5022,
      "ħees": 5023,
      "ħny": 5024,
      "ħII": 5025,
      "refl": 5026,
      "ħaily": 5027,
      "ħounts": 5028,
      "buildings": 5029,
      "market": 5030,
      "standard": 5031,
      "Mosley": 5032,
      "rapid": 5033,
      "Somerset": 5034,
      "Rob": 5035,
      "Tropical": 5036,
      "Vict": 5037,
      "got": 5038,
      "yet": 5039,
      "party": 5040,
      "earned": 5041,
      "books": 5042,
      "Out": 5043,
      "Tenn": 5044,
      "dom": 5045,
      "dark": 5046,
      "lif": 5047,
      "living": 5048,
      "ħTV": 5049,
      "20th": 5050,
      "Three": 5051,
      "1996": 5052,
      "phot": 5053,
      "begins": 5054,
      "issued": 5055,
      "Busch": 5056,
      "Bob": 5057,
      "Sal": 5058,
      "hair": 5059,
      "mur": 5060,
      "ħrat": 5061,
      "ħinated": 5062,
      "ħrey": 5063,
      "ħada": 5064,
      "ħria": 5065,
      "intell": 5066,
      "directly": 5067,
      "marked": 5068,
      "terms": 5069,
      "cathedral": 5070,
      "traditional": 5071,
      "Lake": 5072,
      "Met": 5073,
      "sal": 5074,
      "ħhouse": 5075,
      "ħental": 5076,
      "ħumed": 5077,
      "health": 5078,
      "scenes": 5079,
      "movement": 5080,
      "Spanish": 5081,
      "Christmas": 5082,
      "marriage": 5083,
      "status": 5084,
      "African": 5085,
      "Taylor": 5086,
      "Fowler": 5087,
      "Gar": 5088,
      "path": 5089,
      "slight": 5090,
      "Command": 5091,
      "helped": 5092,
      "portr": 5093,
      "figure": 5094,
      "Several": 5095,
      "90": 5096,
      "Bas": 5097,
      "Cross": 5098,
      "Dem": 5099,
      "Nor": 5100,
      "Tem": 5101,
      "batter": 5102,
      "cur": 5103,
      "norm": 5104,
      "pil": 5105,
      "ħrical": 5106,
      "ħlin": 5107,
      "ħitch": 5108,
      "ħadm": 5109,
      "ħaded": 5110,
      "ħrovers": 5111,
      "ħodon": 5112,
      "ħeway": 5113,
      "Storm": 5114,
      "sched": 5115,
      "ħembly": 5116,
      "starting": 5117,
      "attacks": 5118,
      "schools": 5119,
      "experi": 5120,
      "suffered": 5121,
      "inspired": 5122,
      "information": 5123,
      "planned": 5124,
      "Soviet": 5125,
      "42": 5126,
      "Cont": 5127,
      "Ill": 5128,
      "Just": 5129,
      "giving": 5130,
      "husband": 5131,
      "ħils": 5132,
      "ħcend": 5133,
      "Franc": 5134,
      "performances": 5135,
      "associated": 5136,
      "source": 5137,
      "Infantry": 5138,
      "Jane": 5139,
      "Po": 5140,
      "division": 5141,
      "ħbury": 5142,
      "ħoration": 5143,
      "ħimb": 5144,
      "ħify": 5145,
      "plot": 5146,
      "closed": 5147,
      "abandon": 5148,
      "ħibly": 5149,
      "ħathan": 5150,
      "presented": 5151,
      "transl": 5152,
      "prevent": 5153,
      "condoms": 5154,
      "initial": 5155,
      "Party": 5156,
      "machine": 5157,
      "Lou": 5158,
      "Rel": 5159,
      "raised": 5160,
      "room": 5161,
      "via": 5162,
      "ħien": 5163,
      "ħatre": 5164,
      "ħisk": 5165,
      "ħican": 5166,
      "ħanded": 5167,
      "ħessa": 5168,
      "Inn": 5169,
      "image": 5170,
      "presence": 5171,
      "polic": 5172,
      "Trans": 5173,
      "greatest": 5174,
      "Series": 5175,
      "education": 5176,
      "Cast": 5177,
      "Long": 5178,
      "Six": 5179,
      "fell": 5180,
      "hundred": 5181,
      "pay": 5182,
      "wound": 5183,
      "ħlike": 5184,
      "ħsylv": 5185,
      "ħerve": 5186,
      "inters": 5187,
      "ħolf": 5188,
      "chall": 5189,
      "unit": 5190,
      "ħanger": 5191,
      "uses": 5192,
      "writers": 5193,
      "nearby": 5194,
      "continue": 5195,
      "Club": 5196,
      "annual": 5197,
      "Paris": 5198,
      "Carolina": 5199,
      "Pennsylv": 5200,
      "Virginia": 5201,
      "Rosebery": 5202,
      "Che": 5203,
      "Live": 5204,
      "Open": 5205,
      "Ram": 5206,
      "park": 5207,
      "talk": 5208,
      "ħiated": 5209,
      "ħpted": 5210,
      "complex": 5211,
      "ħiami": 5212,
      "collection": 5213,
      "covered": 5214,
      "Acad": 5215,
      "cyclone": 5216,
      "Mill": 5217,
      "hot": 5218,
      "habit": 5219,
      "ħergy": 5220,
      "ħitect": 5221,
      "ħether": 5222,
      "ħimony": 5223,
      "space": 5224,
      "enj": 5225,
      "composed": 5226,
      "weap": 5227,
      "College": 5228,
      "services": 5229,
      "Queen": 5230,
      "Meyer": 5231,
      "Er": 5232,
      "Water": 5233,
      "bodies": 5234,
      "ħán": 5235,
      "ħiny": 5236,
      "ħatives": 5237,
      "ħires": 5238,
      "really": 5239,
      "sev": 5240,
      "plat": 5241,
      "1997": 5242,
      "numerous": 5243,
      "ħinner": 5244,
      "metal": 5245,
      "extended": 5246,
      "producer": 5247,
      "commander": 5248,
      "ħmpire": 5249,
      "waters": 5250,
      "figures": 5251,
      "territory": 5252,
      "ħoncé": 5253,
      "Beyoncé": 5254,
      "Dam": 5255,
      "Jose": 5256,
      "Miami": 5257,
      "ħrid": 5258,
      "things": 5259,
      "ħuries": 5260,
      "ħanta": 5261,
      "script": 5262,
      "Germany": 5263,
      "Museum": 5264,
      "ħipped": 5265,
      "something": 5266,
      "vocals": 5267,
      "proteins": 5268,
      "44": 5269,
      "Games": 5270,
      "Nations": 5271,
      "har": 5272,
      "ħeign": 5273,
      "Their": 5274,
      "ħricket": 5275,
      "subject": 5276,
      "amount": 5277,
      "artist": 5278,
      "operation": 5279,
      "financ": 5280,
      "necess": 5281,
      "investig": 5282,
      "Cons": 5283,
      "morning": 5284,
      "pick": 5285,
      "saf": 5286,
      "tax": 5287,
      "ħging": 5288,
      "ħols": 5289,
      "concept": 5290,
      "ħestival": 5291,
      "ħapo": 5292,
      "ħovers": 5293,
      "promin": 5294,
      "incor": 5295,
      "Through": 5296,
      "companies": 5297,
      "highly": 5298,
      "strength": 5299,
      "attacked": 5300,
      "attempts": 5301,
      "Somal": 5302,
      "text": 5303,
      "Service": 5304,
      "Cer": 5305,
      "Crit": 5306,
      "Lo": 5307,
      "bad": 5308,
      "era": 5309,
      "piano": 5310,
      "ħlim": 5311,
      "ħvement": 5312,
      "ħpole": 5313,
      "ħadium": 5314,
      "prec": 5315,
      "ħribution": 5316,
      "symb": 5317,
      "artillery": 5318,
      "ħograph": 5319,
      "speed": 5320,
      "confir": 5321,
      "immediately": 5322,
      "ħadmium": 5323,
      "Pennsylvania": 5324,
      "AI": 5325,
      "Major": 5326,
      "purs": 5327,
      "ħhold": 5328,
      "ħisation": 5329,
      "ħisher": 5330,
      "ħomer": 5331,
      "stone": 5332,
      "spir": 5333,
      "ħoint": 5334,
      "distance": 5335,
      "allowing": 5336,
      "tracks": 5337,
      "powerful": 5338,
      "situation": 5339,
      "Jackson": 5340,
      "nuclear": 5341,
      "Squadron": 5342,
      "removed": 5343,
      "ħtrack": 5344,
      "kilomet": 5345,
      "51": 5346,
      "Li": 5347,
      "Pet": 5348,
      "Rad": 5349,
      "dig": 5350,
      "kick": 5351,
      "rate": 5352,
      "search": 5353,
      "ħonna": 5354,
      "inside": 5355,
      "ħandid": 5356,
      "ħaine": 5357,
      "ħiple": 5358,
      "offered": 5359,
      "secret": 5360,
      "blood": 5361,
      "studies": 5362,
      "variety": 5363,
      "friends": 5364,
      "needed": 5365,
      "peaked": 5366,
      "sexual": 5367,
      "selected": 5368,
      "purp": 5369,
      "Scotland": 5370,
      "susp": 5371,
      "Victor": 5372,
      "Bet": 5373,
      "Both": 5374,
      "Final": 5375,
      "Los": 5376,
      "Sir": 5377,
      "native": 5378,
      "ħelop": 5379,
      "ħrial": 5380,
      "recover": 5381,
      "182": 5382,
      "ħizing": 5383,
      "1991": 5384,
      "means": 5385,
      "coach": 5386,
      "Chris": 5387,
      "countries": 5388,
      "headquarters": 5389,
      "attempted": 5390,
      "copies": 5391,
      "Football": 5392,
      "Bol": 5393,
      "rule": 5394,
      "ħtered": 5395,
      "ang": 5396,
      "China": 5397,
      "scoring": 5398,
      "advant": 5399,
      "hands": 5400,
      "casual": 5401,
      "widely": 5402,
      "responsible": 5403,
      "respectively": 5404,
      "Alex": 5405,
      "Land": 5406,
      "max": 5407,
      "ħaen": 5408,
      "ħding": 5409,
      "ħhood": 5410,
      "ħening": 5411,
      "ħsend": 5412,
      "controvers": 5413,
      "interact": 5414,
      "grand": 5415,
      "ħannel": 5416,
      "sets": 5417,
      "appearances": 5418,
      "extrem": 5419,
      "describes": 5420,
      "Anderson": 5421,
      "genus": 5422,
      "higher": 5423,
      "touchdown": 5424,
      "Department": 5425,
      "Are": 5426,
      "Hear": 5427,
      "Post": 5428,
      "ħarp": 5429,
      "ħiron": 5430,
      "ħaped": 5431,
      "ħift": 5432,
      "canc": 5433,
      "1992": 5434,
      "constit": 5435,
      "course": 5436,
      "middle": 5437,
      "magn": 5438,
      "observed": 5439,
      "Corps": 5440,
      "Braat": 5441,
      "heavily": 5442,
      "Bre": 5443,
      "Nes": 5444,
      "Time": 5445,
      "ben": 5446,
      "ess": 5447,
      "fill": 5448,
      "xenon": 5449,
      "ħMS": 5450,
      "ħado": 5451,
      "seem": 5452,
      "relief": 5453,
      "compos": 5454,
      "display": 5455,
      "1994": 5456,
      "below": 5457,
      "sixth": 5458,
      "reduced": 5459,
      "ħshire": 5460,
      "Young": 5461,
      "administ": 5462,
      "meeting": 5463,
      "enjoy": 5464,
      "37": 5465,
      "48": 5466,
      "76": 5467,
      "Like": 5468,
      "Midd": 5469,
      "ħesota": 5470,
      "stay": 5471,
      "ħulations": 5472,
      "ħumber": 5473,
      "active": 5474,
      "syn": 5475,
      "blue": 5476,
      "singer": 5477,
      "matches": 5478,
      "advance": 5479,
      "resulted": 5480,
      "opportun": 5481,
      "audience": 5482,
      "concluded": 5483,
      "Minnesota": 5484,
      "Pit": 5485,
      "corn": 5486,
      "hour": 5487,
      "paper": 5488,
      "wing": 5489,
      "ħlight": 5490,
      "ħuated": 5491,
      "ħarrow": 5492,
      "ħena": 5493,
      "ħakapo": 5494,
      "true": 5495,
      "ħinkel": 5496,
      "instit": 5497,
      "completely": 5498,
      "activity": 5499,
      "activities": 5500,
      "Smith": 5501,
      "3rd": 5502,
      "Av": 5503,
      "Green": 5504,
      "Jim": 5505,
      "Jul": 5506,
      "Southern": 5507,
      "cer": 5508,
      "dress": 5509,
      "pu": 5510,
      "ħisl": 5511,
      "ħroom": 5512,
      "stating": 5513,
      "ħemic": 5514,
      "ħutch": 5515,
      "disapp": 5516,
      "managed": 5517,
      "ħathus": 5518,
      "graph": 5519,
      "Center": 5520,
      "Sea": 5521,
      "Townsend": 5522,
      "revealed": 5523,
      "question": 5524,
      "contemporary": 5525,
      "Hawai": 5526,
      "Italian": 5527,
      "Meyerbe": 5528,
      "Dist": 5529,
      "Ka": 5530,
      "ver": 5531,
      "ħyr": 5532,
      "ħād": 5533,
      "ħhew": 5534,
      "ħenge": 5535,
      "ħocr": 5536,
      "ħervation": 5537,
      "entr": 5538,
      "drum": 5539,
      "refused": 5540,
      "levels": 5541,
      "declared": 5542,
      "trees": 5543,
      "separate": 5544,
      "quality": 5545,
      "Meyerbeer": 5546,
      "Cat": 5547,
      "Fur": 5548,
      "Finkel": 5549,
      "iron": 5550,
      "narr": 5551,
      "pun": 5552,
      "rout": 5553,
      "ħbird": 5554,
      "intern": 5555,
      "ħacher": 5556,
      "ħessions": 5557,
      "Thunder": 5558,
      "ħounds": 5559,
      "appar": 5560,
      "ħrowd": 5561,
      "1970": 5562,
      "brown": 5563,
      "Force": 5564,
      "approach": 5565,
      "Walpole": 5566,
      "Because": 5567,
      "Finkelstein": 5568,
      "52": 5569,
      "Hind": 5570,
      "Tessa": 5571,
      "Yue": 5572,
      "lot": 5573,
      "rhy": 5574,
      "ħingu": 5575,
      "ħasc": 5576,
      "today": 5577,
      "ħestic": 5578,
      "recent": 5579,
      "reception": 5580,
      "ħogue": 5581,
      "ħrawn": 5582,
      "ħperor": 5583,
      "university": 5584,
      "webs": 5585,
      "peace": 5586,
      "Shiva": 5587,
      "background": 5588,
      "150": 5589,
      "parents": 5590,
      "carry": 5591,
      "featuring": 5592,
      "respond": 5593,
      "model": 5594,
      "typically": 5595,
      "historical": 5596,
      "vocal": 5597,
      "Om": 5598,
      "Pre": 5599,
      "Sar": 5600,
      "Wild": 5601,
      "aw": 5602,
      "chem": 5603,
      "walk": 5604,
      "ħux": 5605,
      "ħstone": 5606,
      "ħroad": 5607,
      "ħlean": 5608,
      "beat": 5609,
      "displ": 5610,
      "plays": 5611,
      "ħorship": 5612,
      "Arg": 5613,
      "actions": 5614,
      "emot": 5615,
      "ħaha": 5616,
      "Blue": 5617,
      "conditions": 5618,
      "expected": 5619,
      "Charl": 5620,
      "issues": 5621,
      "vehic": 5622,
      "Society": 5623,
      "Nicole": 5624,
      "Ottoman": 5625,
      "Illino": 5626,
      "Balt": 5627,
      "Def": 5628,
      "fear": 5629,
      "ħFA": 5630,
      "inh": 5631,
      "ħeman": 5632,
      "ħoses": 5633,
      "ħipl": 5634,
      "becomes": 5635,
      "attention": 5636,
      "weaken": 5637,
      "mainly": 5638,
      "Spec": 5639,
      "famil": 5640,
      "efforts": 5641,
      "impact": 5642,
      "houses": 5643,
      "34": 5644,
      "Turn": 5645,
      "du": 5646,
      "nation": 5647,
      "royal": 5648,
      "wear": 5649,
      "thr": 5650,
      "ħams": 5651,
      "residents": 5652,
      "offer": 5653,
      "ħocks": 5654,
      "specim": 5655,
      "ħype": 5656,
      "instr": 5657,
      "condom": 5658,
      "Highway": 5659,
      "strugg": 5660,
      "Court": 5661,
      "Braathens": 5662,
      "Burn": 5663,
      "Hal": 5664,
      "Tod": 5665,
      "ir": 5666,
      "sn": 5667,
      "sense": 5668,
      "ħiro": 5669,
      "ħBA": 5670,
      "recomm": 5671,
      "actually": 5672,
      "calling": 5673,
      "Add": 5674,
      "titles": 5675,
      "elev": 5676,
      "demonst": 5677,
      "architect": 5678,
      "Hait": 5679,
      "ħtainment": 5680,
      "soundtrack": 5681,
      "protein": 5682,
      "ħufact": 5683,
      "board": 5684,
      "crowd": 5685,
      "overs": 5686,
      "roles": 5687,
      "ħaise": 5688,
      "ħbon": 5689,
      "ħonents": 5690,
      "ħiles": 5691,
      "thous": 5692,
      "alt": 5693,
      "altern": 5694,
      "ħappen": 5695,
      "suc": 5696,
      "scient": 5697,
      "1990": 5698,
      "seasons": 5699,
      "write": 5700,
      "defend": 5701,
      "Ann": 5702,
      "ħledge": 5703,
      "Johnson": 5704,
      "Columb": 5705,
      "accepted": 5706,
      "struck": 5707,
      "achieved": 5708,
      "Government": 5709,
      "Portugues": 5710,
      "cannot": 5711,
      "Fam": 5712,
      "Fey": 5713,
      "Lar": 5714,
      "Mat": 5715,
      "Mog": 5716,
      "Of": 5717,
      "nin": 5718,
      "ħka": 5719,
      "ħications": 5720,
      "ħette": 5721,
      "ħutions": 5722,
      "fruit": 5723,
      "ħessor": 5724,
      "ħberg": 5725,
      "resc": 5726,
      "ħension": 5727,
      "shell": 5728,
      "types": 5729,
      "ħoof": 5730,
      "practice": 5731,
      "Vietnam": 5732,
      "reinfor": 5733,
      "Portuguese": 5734,
      "Little": 5735,
      "dyn": 5736,
      "fiction": 5737,
      "lb": 5738,
      "mel": 5739,
      "rough": 5740,
      "ħwen": 5741,
      "ħeller": 5742,
      "ħirection": 5743,
      "181": 5744,
      "scul": 5745,
      "musc": 5746,
      "Att": 5747,
      "ħanning": 5748,
      "distinct": 5749,
      "Spain": 5750,
      "Clark": 5751,
      "ħechan": 5752,
      "avoid": 5753,
      "infantry": 5754,
      "primarily": 5755,
      "Secret": 5756,
      "sequence": 5757,
      "Academy": 5758,
      "Book": 5759,
      "Civil": 5760,
      "Fer": 5761,
      "Group": 5762,
      "Tint": 5763,
      "sales": 5764,
      "plant": 5765,
      "spread": 5766,
      "Engine": 5767,
      "elected": 5768,
      "1986": 5769,
      "owned": 5770,
      "twenty": 5771,
      "combat": 5772,
      "slightly": 5773,
      "Horse": 5774,
      "Sarn": 5775,
      "Wels": 5776,
      "rights": 5777,
      "sister": 5778,
      "ħmond": 5779,
      "rear": 5780,
      "heart": 5781,
      "sust": 5782,
      "sport": 5783,
      "inches": 5784,
      "scale": 5785,
      "offensive": 5786,
      "concent": 5787,
      "county": 5788,
      "Prince": 5789,
      "legal": 5790,
      "northeast": 5791,
      "affected": 5792,
      "ħceeded": 5793,
      "Captain": 5794,
      "expressed": 5795,
      "ħonymous": 5796,
      "Louis": 5797,
      "Dou": 5798,
      "Tri": 5799,
      "cam": 5800,
      "farm": 5801,
      "mis": 5802,
      "sout": 5803,
      "words": 5804,
      "ħbed": 5805,
      "ħAA": 5806,
      "ħushed": 5807,
      "ħella": 5808,
      "180": 5809,
      "showed": 5810,
      "officer": 5811,
      "neigh": 5812,
      "Prod": 5813,
      "Review": 5814,
      "Nesb": 5815,
      "Tintin": 5816,
      "Welsh": 5817,
      "Empire": 5818,
      "Kn": 5819,
      "Lock": 5820,
      "Manc": 5821,
      "Sil": 5822,
      "Zhou": 5823,
      "er": 5824,
      "ħys": 5825,
      "ħmet": 5826,
      "ħmitted": 5827,
      "ħompl": 5828,
      "forest": 5829,
      "ħortal": 5830,
      "ħastic": 5831,
      "ability": 5832,
      "Though": 5833,
      "themes": 5834,
      "contrast": 5835,
      "Adm": 5836,
      "battalion": 5837,
      "Andrew": 5838,
      "Orig": 5839,
      "combined": 5840,
      "excav": 5841,
      "Varanas": 5842,
      "newspaper": 5843,
      "Ceres": 5844,
      "ħironment": 5845,
      "Varanasi": 5846,
      "Ros": 5847,
      "Yank": 5848,
      "horse": 5849,
      "mess": 5850,
      "ple": 5851,
      "ħorus": 5852,
      "ħenant": 5853,
      "thir": 5854,
      "ħigan": 5855,
      "ħovic": 5856,
      "Commun": 5857,
      "titled": 5858,
      "cultural": 5859,
      "Odaen": 5860,
      "incorpor": 5861,
      "casualties": 5862,
      "Nesbitt": 5863,
      "49": 5864,
      "Way": 5865,
      "ox": 5866,
      "says": 5867,
      "ħmark": 5868,
      "ħbr": 5869,
      "ħano": 5870,
      "reign": 5871,
      "remark": 5872,
      "produce": 5873,
      "actor": 5874,
      "grass": 5875,
      "continues": 5876,
      "Conf": 5877,
      "Eva": 5878,
      "earliest": 5879,
      "mountain": 5880,
      "ħwhile": 5881,
      "Angeles": 5882,
      "mentioned": 5883,
      "ancient": 5884,
      "murder": 5885,
      "cerem": 5886,
      "Illinois": 5887,
      "Odaenathus": 5888,
      "Boy": 5889,
      "Direct": 5890,
      "Jos": 5891,
      "Rh": 5892,
      "Wash": 5893,
      "fully": 5894,
      "mission": 5895,
      "narrow": 5896,
      "ħuous": 5897,
      "ħMont": 5898,
      "ħinus": 5899,
      "ħacts": 5900,
      "championship": 5901,
      "disease": 5902,
      "manufact": 5903,
      "ħeball": 5904,
      "ħancy": 5905,
      "artists": 5906,
      "resulting": 5907,
      "deliv": 5908,
      "Records": 5909,
      "authorities": 5910,
      "influenced": 5911,
      "DuMont": 5912,
      "flooding": 5913,
      "Olympic": 5914,
      "adopted": 5915,
      "advantage": 5916,
      "Mogad": 5917,
      "Sarnia": 5918,
      "65": 5919,
      "Sen": 5920,
      "wild": 5921,
      "ħSt": 5922,
      "ħiled": 5923,
      "reports": 5924,
      "assault": 5925,
      "basis": 5926,
      "Prot": 5927,
      "Colon": 5928,
      "Perón": 5929,
      "represented": 5930,
      "Apple": 5931,
      "Max": 5932,
      "NC": 5933,
      "Pop": 5934,
      "bott": 5935,
      "candid": 5936,
      "mile": 5937,
      "sides": 5938,
      "ħlings": 5939,
      "ħora": 5940,
      "toward": 5941,
      "ħura": 5942,
      "ħuse": 5943,
      "alone": 5944,
      "ħoper": 5945,
      "coming": 5946,
      "exhib": 5947,
      "spl": 5948,
      "News": 5949,
      "defense": 5950,
      "bridge": 5951,
      "ħhelm": 5952,
      "begin": 5953,
      "viewers": 5954,
      "Week": 5955,
      "square": 5956,
      "letters": 5957,
      "withdraw": 5958,
      "tower": 5959,
      "tournament": 5960,
      "Thunderbird": 5961,
      "Manchester": 5962,
      "Four": 5963,
      "Home": 5964,
      "Horn": 5965,
      "Ocean": 5966,
      "SR": 5967,
      "direction": 5968,
      "hol": 5969,
      "kakapo": 5970,
      "nest": 5971,
      "rat": 5972,
      "vo": 5973,
      "yellow": 5974,
      "ħrane": 5975,
      "ħwrit": 5976,
      "ħbit": 5977,
      "ħares": 5978,
      "insc": 5979,
      "ħolec": 5980,
      "ħims": 5981,
      "armed": 5982,
      "relatively": 5983,
      "18th": 5984,
      "workers": 5985,
      "founded": 5986,
      "alongside": 5987,
      "occasion": 5988,
      "effort": 5989,
      "northwest": 5990,
      "encour": 5991,
      "illust": 5992,
      "torped": 5993,
      "Washington": 5994,
      "Leg": 5995,
      "Van": 5996,
      "cadmium": 5997,
      "hors": 5998,
      "losing": 5999,
      "mechan": 6000,
      "rang": 6001,
      "sac": 6002,
      "ħaith": 6003,
      "ħbour": 6004,
      "ħulate": 6005,
      "ħiana": 6006,
      "contain": 6007,
      "ħolling": 6008,
      "adj": 6009,
      "univers": 6010,
      "ħricult": 6011,
      "ħibr": 6012,
      "attended": 6013,
      "emph": 6014,
      "1988": 6015,
      "officially": 6016,
      "edition": 6017,
      "tried": 6018,
      "organized": 6019,
      "capture": 6020,
      "individuals": 6021,
      "transferred": 6022,
      "physical": 6023,
      "Turk": 6024,
      "Mass": 6025,
      "Sum": 6026,
      "ast": 6027,
      "ħsen": 6028,
      "ħkare": 6029,
      "ħadel": 6030,
      "proved": 6031,
      "ħabama": 6032,
      "ħacks": 6033,
      "ħgend": 6034,
      "perman": 6035,
      "Alabama": 6036,
      "acting": 6037,
      "neut": 6038,
      "require": 6039,
      "winter": 6040,
      "behav": 6041,
      "pattern": 6042,
      "officials": 6043,
      "Mean": 6044,
      "measure": 6045,
      "surrounding": 6046,
      "rainfall": 6047,
      "dedicated": 6048,
      "Joseph": 6049,
      "Omaha": 6050,
      "Mogadish": 6051,
      "46": 6052,
      "64": 6053,
      "Bu": 6054,
      "Bh": 6055,
      "Bon": 6056,
      "Dest": 6057,
      "Gall": 6058,
      "Kent": 6059,
      "MD": 6060,
      "feder": 6061,
      "lives": 6062,
      "ħrol": 6063,
      "ħoch": 6064,
      "ħimore": 6065,
      "energy": 6066,
      "Arm": 6067,
      "doing": 6068,
      "suppl": 6069,
      "edge": 6070,
      "Edward": 6071,
      "conflict": 6072,
      "Fant": 6073,
      "Lord": 6074,
      "folk": 6075,
      "mind": 6076,
      "raid": 6077,
      "wa": 6078,
      "ħlers": 6079,
      "ħping": 6080,
      "ħply": 6081,
      "ħban": 6082,
      "ħinary": 6083,
      "ħedar": 6084,
      "ħitness": 6085,
      "chief": 6086,
      "shape": 6087,
      "ħizes": 6088,
      "follows": 6089,
      "1960s": 6090,
      "Independ": 6091,
      "designated": 6092,
      "possibly": 6093,
      "shortly": 6094,
      "Reception": 6095,
      "society": 6096,
      "divided": 6097,
      "function": 6098,
      "dissip": 6099,
      "Helms": 6100,
      "intensity": 6101,
      "Innis": 6102,
      "financial": 6103,
      "Argent": 6104,
      "Mogadishu": 6105,
      "Bowl": 6106,
      "Cra": 6107,
      "Journ": 6108,
      "Lis": 6109,
      "Prem": 6110,
      "border": 6111,
      "faced": 6112,
      "paid": 6113,
      "your": 6114,
      "ħij": 6115,
      "ħiate": 6116,
      "ħkn": 6117,
      "ħRA": 6118,
      "images": 6119,
      "product": 6120,
      "albums": 6121,
      "1980s": 6122,
      "1940": 6123,
      "1964": 6124,
      "color": 6125,
      "simply": 6126,
      "older": 6127,
      "legisl": 6128,
      "repe": 6129,
      "Histor": 6130,
      "letter": 6131,
      "sources": 6132,
      "Wilhelm": 6133,
      "McCall": 6134,
      "eye": 6135,
      "determined": 6136,
      "journal": 6137,
      "maximum": 6138,
      "End": 6139,
      "Hu": 6140,
      "aid": 6141,
      "kept": 6142,
      "master": 6143,
      "ħVD": 6144,
      "ħenture": 6145,
      "onto": 6146,
      "ħagan": 6147,
      "comedy": 6148,
      "places": 6149,
      "ħipment": 6150,
      "advert": 6151,
      "agg": 6152,
      "ħugby": 6153,
      "movie": 6154,
      "broken": 6155,
      "portion": 6156,
      "Assembly": 6157,
      "doub": 6158,
      "piece": 6159,
      "potential": 6160,
      "sculpt": 6161,
      "emphas": 6162,
      "Fin": 6163,
      "Fleet": 6164,
      "Jup": 6165,
      "Ven": 6166,
      "cities": 6167,
      "dut": 6168,
      "hom": 6169,
      "ħcy": 6170,
      "ħwide": 6171,
      "ħaming": 6172,
      "stra": 6173,
      "frag": 6174,
      "ħudd": 6175,
      "appeal": 6176,
      "charge": 6177,
      "ħazz": 6178,
      "Commission": 6179,
      "argued": 6180,
      "PlaySt": 6181,
      "domestic": 6182,
      "PlayStation": 6183,
      "55": 6184,
      "53": 6185,
      "Bir": 6186,
      "FA": 6187,
      "Good": 6188,
      "Night": 6189,
      "Rih": 6190,
      "grew": 6191,
      "ħbl": 6192,
      "ħisters": 6193,
      "ħety": 6194,
      "step": 6195,
      "projects": 6196,
      "ħistry": 6197,
      "spot": 6198,
      "ħasty": 6199,
      "content": 6200,
      "depth": 6201,
      "Common": 6202,
      "suggests": 6203,
      "authority": 6204,
      "management": 6205,
      "sites": 6206,
      "Hamels": 6207,
      "Valley": 6208,
      "Baltimore": 6209,
      "Rihanna": 6210,
      "Sky": 6211,
      "Us": 6212,
      "Writ": 6213,
      "fung": 6214,
      "gained": 6215,
      "homes": 6216,
      "hospital": 6217,
      "paint": 6218,
      "say": 6219,
      "sens": 6220,
      "wor": 6221,
      "wave": 6222,
      "ħners": 6223,
      "ħmon": 6224,
      "ħacement": 6225,
      "conver": 6226,
      "ħosen": 6227,
      "ħumes": 6228,
      "shr": 6229,
      "share": 6230,
      "prison": 6231,
      "science": 6232,
      "attend": 6233,
      "weak": 6234,
      "museum": 6235,
      "extra": 6236,
      "artic": 6237,
      "belong": 6238,
      "ħengt": 6239,
      "depart": 6240,
      "Constant": 6241,
      "phil": 6242,
      "causing": 6243,
      "twice": 6244,
      "criticized": 6245,
      "structures": 6246,
      "couple": 6247,
      "Palest": 6248,
      "Djed": 6249,
      "ultimately": 6250,
      "target": 6251,
      "schedul": 6252,
      "entrance": 6253,
      "website": 6254,
      "56": 6255,
      "5th": 6256,
      "DVD": 6257,
      "Lew": 6258,
      "Lev": 6259,
      "mouth": 6260,
      "pan": 6261,
      "tur": 6262,
      "vess": 6263,
      "ħche": 6264,
      "ħiot": 6265,
      "deploy": 6266,
      "Step": 6267,
      "containing": 6268,
      "results": 6269,
      "ħprise": 6270,
      "formation": 6271,
      "interp": 6272,
      "Anth": 6273,
      "debuted": 6274,
      "hyd": 6275,
      "dismiss": 6276,
      "intellig": 6277,
      "Jupiter": 6278,
      "Djedkare": 6279,
      "Gre": 6280,
      "Hib": 6281,
      "Kar": 6282,
      "Kore": 6283,
      "Nev": 6284,
      "Pen": 6285,
      "core": 6286,
      "cricket": 6287,
      "fast": 6288,
      "hers": 6289,
      "hun": 6290,
      "kg": 6291,
      "ħrain": 6292,
      "ħnes": 6293,
      "ħmes": 6294,
      "ħhan": 6295,
      "ħatur": 6296,
      "ħicro": 6297,
      "ħrel": 6298,
      "foreign": 6299,
      "chosen": 6300,
      "Ste": 6301,
      "Chap": 6302,
      "remix": 6303,
      "defence": 6304,
      "defensive": 6305,
      "miner": 6306,
      "1947": 6307,
      "collabor": 6308,
      "battles": 6309,
      "planet": 6310,
      "Torres": 6311,
      "opin": 6312,
      "document": 6313,
      "label": 6314,
      "43": 6315,
      "Eastern": 6316,
      "Jon": 6317,
      "Ox": 6318,
      "fix": 6319,
      "ro": 6320,
      "ħati": 6321,
      "inch": 6322,
      "ħiced": 6323,
      "rejected": 6324,
      "ħaved": 6325,
      "Child": 6326,
      "security": 6327,
      "consecutive": 6328,
      "Short": 6329,
      "120": 6330,
      "brigade": 6331,
      "organization": 6332,
      "standing": 6333,
      "reference": 6334,
      "growing": 6335,
      "animal": 6336,
      "buried": 6337,
      "independent": 6338,
      "granted": 6339,
      "abandoned": 6340,
      "prominent": 6341,
      "Middle": 6342,
      "ħknown": 6343,
      "Bull": 6344,
      "Field": 6345,
      "diam": 6346,
      "sand": 6347,
      "ven": 6348,
      "ħeer": 6349,
      "ħych": 6350,
      "ħML": 6351,
      "ħocated": 6352,
      "seek": 6353,
      "Once": 6354,
      "weight": 6355,
      "ħicks": 6356,
      "doct": 6357,
      "therefore": 6358,
      "student": 6359,
      "1941": 6360,
      "colony": 6361,
      "condition": 6362,
      "ħographer": 6363,
      "visited": 6364,
      "convers": 6365,
      "claims": 6366,
      "temple": 6367,
      "Airport": 6368,
      "orders": 6369,
      "encoun": 6370,
      "cells": 6371,
      "ħwhite": 6372,
      "Scottish": 6373,
      "benef": 6374,
      "Applewhite": 6375,
      "BBC": 6376,
      "Cre": 6377,
      "Norm": 6378,
      "Op": 6379,
      "RA": 6380,
      "So": 6381,
      "SAF": 6382,
      "jump": 6383,
      "risk": 6384,
      "ħmosp": 6385,
      "ħicts": 6386,
      "spect": 6387,
      "newly": 6388,
      "regions": 6389,
      "ħphia": 6390,
      "seconds": 6391,
      "ħairs": 6392,
      "singles": 6393,
      "1987": 6394,
      "broke": 6395,
      "Forest": 6396,
      "moment": 6397,
      "wounded": 6398,
      "ħadelphia": 6399,
      "ħengthen": 6400,
      "SAFE": 6401,
      "41": 6402,
      "Jur": 6403,
      "ahead": 6404,
      "ħases": 6405,
      "ħasters": 6406,
      "ħiring": 6407,
      "reaching": 6408,
      "height": 6409,
      "Institute": 6410,
      "seems": 6411,
      "hero": 6412,
      "enemy": 6413,
      "weather": 6414,
      "Indust": 6415,
      "1970s": 6416,
      "versions": 6417,
      "solo": 6418,
      "ħushing": 6419,
      "equipment": 6420,
      "cases": 6421,
      "favour": 6422,
      "knowledge": 6423,
      "identified": 6424,
      "nominated": 6425,
      "Egyptian": 6426,
      "temperature": 6427,
      "Background": 6428,
      "9th": 6429,
      "Ban": 6430,
      "Dis": 6431,
      "Due": 6432,
      "Greek": 6433,
      "Id": 6434,
      "bud": 6435,
      "cust": 6436,
      "la": 6437,
      "males": 6438,
      "roll": 6439,
      "rare": 6440,
      "tun": 6441,
      "ħias": 6442,
      "excl": 6443,
      "contact": 6444,
      "unique": 6445,
      "Head": 6446,
      "Carl": 6447,
      "1984": 6448,
      "1989": 6449,
      "1972": 6450,
      "aired": 6451,
      "returning": 6452,
      "supporting": 6453,
      "campus": 6454,
      "Before": 6455,
      "visual": 6456,
      "element": 6457,
      "opposed": 6458,
      "council": 6459,
      "problem": 6460,
      "Croatia": 6461,
      "environment": 6462,
      "Further": 6463,
      "4th": 6464,
      "54": 6465,
      "Each": 6466,
      "Kir": 6467,
      "Mike": 6468,
      "Ry": 6469,
      "Sub": 6470,
      "fox": 6471,
      "tim": 6472,
      "ħnest": 6473,
      "ħmun": 6474,
      "ħinem": 6475,
      "ħishes": 6476,
      "ħamic": 6477,
      "atmosp": 6478,
      "fired": 6479,
      "unknown": 6480,
      "teacher": 6481,
      "address": 6482,
      "1985": 6483,
      "operated": 6484,
      "looking": 6485,
      "devot": 6486,
      "increasingly": 6487,
      "literature": 6488,
      "Operation": 6489,
      "scholars": 6490,
      "analysis": 6491,
      "straight": 6492,
      "HMS": 6493,
      "Les": 6494,
      "Meg": 6495,
      "Ret": 6496,
      "Wat": 6497,
      "boy": 6498,
      "here": 6499,
      "molec": 6500,
      "rom": 6501,
      "trou": 6502,
      "ħca": 6503,
      "ħcan": 6504,
      "ħuge": 6505,
      "theory": 6506,
      "ħero": 6507,
      "ħstream": 6508,
      "ħagement": 6509,
      "ħighth": 6510,
      "perfect": 6511,
      "compr": 6512,
      "writes": 6513,
      "acad": 6514,
      "defin": 6515,
      "1960": 6516,
      "ideas": 6517,
      "believe": 6518,
      "breeding": 6519,
      "explained": 6520,
      "Barrow": 6521,
      "commonly": 6522,
      "historian": 6523,
      "settlement": 6524,
      "Morr": 6525,
      "Swed": 6526,
      "burns": 6527,
      "Cardiff": 6528,
      "confirmed": 6529,
      "Even": 6530,
      "Fri": 6531,
      "Key": 6532,
      "Public": 6533,
      "Vill": 6534,
      "ge": 6535,
      "od": 6536,
      "oil": 6537,
      "ħLe": 6538,
      "ħala": 6539,
      "ħalty": 6540,
      "ħicient": 6541,
      "stations": 6542,
      "Stan": 6543,
      "Only": 6544,
      "consisted": 6545,
      "ħresp": 6546,
      "singing": 6547,
      "poly": 6548,
      "parliament": 6549,
      "1944": 6550,
      "landfall": 6551,
      "130": 6552,
      "Class": 6553,
      "Conn": 6554,
      "advanced": 6555,
      "systems": 6556,
      "request": 6557,
      "ħappy": 6558,
      "criticism": 6559,
      "females": 6560,
      "Michigan": 6561,
      "Keats": 6562,
      "Philadelphia": 6563,
      "property": 6564,
      "Congress": 6565,
      "Develop": 6566,
      "economic": 6567,
      "controlled": 6568,
      "herself": 6569,
      "Big": 6570,
      "Gard": 6571,
      "Gord": 6572,
      "Hart": 6573,
      "Rog": 6574,
      "happen": 6575,
      "pict": 6576,
      "ħeen": 6577,
      "ħao": 6578,
      "ħmore": 6579,
      "ħhu": 6580,
      "ħalions": 6581,
      "ħadd": 6582,
      "ħider": 6583,
      "deities": 6584,
      "ħillo": 6585,
      "imag": 6586,
      "ħweet": 6587,
      "ħawa": 6588,
      "flow": 6589,
      "1990s": 6590,
      "ħhips": 6591,
      "elim": 6592,
      "maintained": 6593,
      "leader": 6594,
      "creation": 6595,
      "lands": 6596,
      "exped": 6597,
      "Williams": 6598,
      "Mounted": 6599,
      "growth": 6600,
      "pieces": 6601,
      "dropped": 6602,
      "failure": 6603,
      "Addition": 6604,
      "Meanwhile": 6605,
      "57": 6606,
      "Coll": 6607,
      "Dani": 6608,
      "Dutch": 6609,
      "Ll": 6610,
      "Lu": 6611,
      "awards": 6612,
      "fict": 6613,
      "mob": 6614,
      "ħright": 6615,
      "ħinity": 6616,
      "ħeck": 6617,
      "resemb": 6618,
      "Album": 6619,
      "compar": 6620,
      "filmed": 6621,
      "ħfully": 6622,
      "killing": 6623,
      "speak": 6624,
      "freeway": 6625,
      "religion": 6626,
      "pitched": 6627,
      "strike": 6628,
      "honor": 6629,
      "injury": 6630,
      "flying": 6631,
      "semi": 6632,
      "federal": 6633,
      "600": 6634,
      "Ari": 6635,
      "Bost": 6636,
      "Der": 6637,
      "Dun": 6638,
      "Gh": 6639,
      "Matt": 6640,
      "bit": 6641,
      "mist": 6642,
      "sen": 6643,
      "tact": 6644,
      "tail": 6645,
      "task": 6646,
      "wr": 6647,
      "ħcing": 6648,
      "ħfort": 6649,
      "ħonom": 6650,
      "ħager": 6651,
      "ħantly": 6652,
      "try": 6653,
      "ħieval": 6654,
      "ħansion": 6655,
      "Italy": 6656,
      "serve": 6657,
      "ħampion": 6658,
      "retired": 6659,
      "actress": 6660,
      "km2": 6661,
      "ħashion": 6662,
      "Guard": 6663,
      "restaur": 6664,
      "Andy": 6665,
      "belief": 6666,
      "humans": 6667,
      "Abu": 6668,
      "boats": 6669,
      "value": 6670,
      "promoted": 6671,
      "mounted": 6672,
      "Minister": 6673,
      "Steve": 6674,
      "Jeff": 6675,
      "rapidly": 6676,
      "battery": 6677,
      "weapons": 6678,
      "horses": 6679,
      "Ast": 6680,
      "Cold": 6681,
      "Mod": 6682,
      "bid": 6683,
      "bank": 6684,
      "clean": 6685,
      "data": 6686,
      "rob": 6687,
      "selling": 6688,
      "ut": 6689,
      "ħitable": 6690,
      "ħersey": 6691,
      "ħuli": 6692,
      "chair": 6693,
      "ħieut": 6694,
      "agricult": 6695,
      "flank": 6696,
      "Americans": 6697,
      "description": 6698,
      "invasion": 6699,
      "column": 6700,
      "passes": 6701,
      "passing": 6702,
      "Conference": 6703,
      "guest": 6704,
      "publication": 6705,
      "cougar": 6706,
      "significantly": 6707,
      "promotion": 6708,
      "connected": 6709,
      "strik": 6710,
      "recognized": 6711,
      "creating": 6712,
      "multiple": 6713,
      "prepared": 6714,
      "premi": 6715,
      "accompan": 6716,
      "96": 6717,
      "Ap": 6718,
      "Bur": 6719,
      "Den": 6720,
      "Mem": 6721,
      "Video": 6722,
      "Work": 6723,
      "big": 6724,
      "bats": 6725,
      "ham": 6726,
      "sought": 6727,
      "ħhaps": 6728,
      "ħese": 6729,
      "ħarian": 6730,
      "ħrender": 6731,
      "ħrete": 6732,
      "ħunic": 6733,
      "Inst": 6734,
      "chose": 6735,
      "ħips": 6736,
      "ħamese": 6737,
      "strengthen": 6738,
      "colour": 6739,
      "producers": 6740,
      "matter": 6741,
      "famous": 6742,
      "starts": 6743,
      "popularity": 6744,
      "ħarrison": 6745,
      "ħchers": 6746,
      "volume": 6747,
      "walls": 6748,
      "regarded": 6749,
      "reaction": 6750,
      "silver": 6751,
      "nucleus": 6752,
      "aspects": 6753,
      "seventh": 6754,
      "necessary": 6755,
      "scheduled": 6756,
      "Gulf": 6757,
      "Line": 6758,
      "Liber": 6759,
      "gather": 6760,
      "laid": 6761,
      "mo": 6762,
      "rise": 6763,
      "rival": 6764,
      "virt": 6765,
      "ħload": 6766,
      "ħsw": 6767,
      "ħaria": 6768,
      "ħisy": 6769,
      "ħolved": 6770,
      "beaut": 6771,
      "reform": 6772,
      "conce": 6773,
      "ħalls": 6774,
      "send": 6775,
      "ħogen": 6776,
      "ħangers": 6777,
      "1981": 6778,
      "landing": 6779,
      "ħheless": 6780,
      "Vietnamese": 6781,
      "ħguan": 6782,
      "sustained": 6783,
      "philos": 6784,
      "Athlet": 6785,
      "Do": 6786,
      "Hy": 6787,
      "Haven": 6788,
      "Naz": 6789,
      "Nathan": 6790,
      "Sund": 6791,
      "dated": 6792,
      "fought": 6793,
      "outer": 6794,
      "ħns": 6795,
      "ħya": 6796,
      "ħkin": 6797,
      "ħini": 6798,
      "ħstanding": 6799,
      "ħeton": 6800,
      "ħifying": 6801,
      "spring": 6802,
      "ħocked": 6803,
      "Adv": 6804,
      "USA": 6805,
      "drive": 6806,
      "Pho": 6807,
      "Among": 6808,
      "castle": 6809,
      "currently": 6810,
      "employed": 6811,
      "Cardinal": 6812,
      "Cambod": 6813,
      "ħāda": 6814,
      "families": 6815,
      "Thunderbirds": 6816,
      "budget": 6817,
      "700": 6818,
      "Domin": 6819,
      "Girl": 6820,
      "Ho": 6821,
      "Obs": 6822,
      "Ur": 6823,
      "pul": 6824,
      "rating": 6825,
      "save": 6826,
      "tree": 6827,
      "ħrang": 6828,
      "ħlines": 6829,
      "ħhm": 6830,
      "ħheastern": 6831,
      "ħonent": 6832,
      "ħivity": 6833,
      "ħiments": 6834,
      "exec": 6835,
      "train": 6836,
      "contained": 6837,
      "arms": 6838,
      "underground": 6839,
      "ħologists": 6840,
      "ħorney": 6841,
      "ends": 6842,
      "supply": 6843,
      "ħinsula": 6844,
      "179": 6845,
      "parall": 6846,
      "1939": 6847,
      "trial": 6848,
      "phase": 6849,
      "facilities": 6850,
      "Slam": 6851,
      "frequently": 6852,
      "Entertainment": 6853,
      "Oxford": 6854,
      "73": 6855,
      "Ca": 6856,
      "Ell": 6857,
      "Fre": 6858,
      "Fox": 6859,
      "Festival": 6860,
      "Mu": 6861,
      "More": 6862,
      "NH": 6863,
      "dial": 6864,
      "drop": 6865,
      "fat": 6866,
      "wed": 6867,
      "ħiable": 6868,
      "ħTC": 6869,
      "ħayer": 6870,
      "bey": 6871,
      "ħthur": 6872,
      "ħava": 6873,
      "ħunction": 6874,
      "executive": 6875,
      "ħsea": 6876,
      "ħiance": 6877,
      "contributed": 6878,
      "arc": 6879,
      "unus": 6880,
      "computer": 6881,
      "impress": 6882,
      "prefer": 6883,
      "news": 6884,
      "actors": 6885,
      "17th": 6886,
      "1942": 6887,
      "simple": 6888,
      "Prov": 6889,
      "collected": 6890,
      "allows": 6891,
      "Revolution": 6892,
      "negative": 6893,
      "ħborough": 6894,
      "Studios": 6895,
      "degree": 6896,
      "bottom": 6897,
      "Gordon": 6898,
      "62": 6899,
      "61": 6900,
      "95": 6901,
      "Bri": 6902,
      "Chel": 6903,
      "NBA": 6904,
      "Rail": 6905,
      "Sus": 6906,
      "cited": 6907,
      "dim": 6908,
      "hor": 6909,
      "ħrin": 6910,
      "ħrum": 6911,
      "ħlusion": 6912,
      "ħhi": 6913,
      "ħkins": 6914,
      "ħasts": 6915,
      "ħunte": 6916,
      "ħsey": 6917,
      "shaped": 6918,
      "sports": 6919,
      "prin": 6920,
      "ħansas": 6921,
      "overl": 6922,
      "ħanny": 6923,
      "ħancing": 6924,
      "opera": 6925,
      "effective": 6926,
      "1950s": 6927,
      "1918": 6928,
      "entirely": 6929,
      "animals": 6930,
      "improved": 6931,
      "Coast": 6932,
      "subsequent": 6933,
      "Between": 6934,
      "Turner": 6935,
      "Crazy": 6936,
      "Premier": 6937,
      "fictional": 6938,
      "ħieutenant": 6939,
      "beyond": 6940,
      "800": 6941,
      "97": 6942,
      "Dar": 6943,
      "draft": 6944,
      "egg": 6945,
      "gain": 6946,
      "gives": 6947,
      "mig": 6948,
      "ħrations": 6949,
      "ħmission": 6950,
      "ħicial": 6951,
      "ħopium": 6952,
      "ħessed": 6953,
      "notable": 6954,
      "recently": 6955,
      "ħperial": 6956,
      "adapt": 6957,
      "Alf": 6958,
      "Mario": 6959,
      "1968": 6960,
      "1969": 6961,
      "extensive": 6962,
      "Muslim": 6963,
      "medical": 6964,
      "myth": 6965,
      "finding": 6966,
      "boat": 6967,
      "Boise": 6968,
      "gradually": 6969,
      "Martin": 6970,
      "kilometres": 6971,
      "Today": 6972,
      "Lewis": 6973,
      "Boston": 6974,
      "Bart": 6975,
      "Cub": 6976,
      "Greg": 6977,
      "Jain": 6978,
      "Kang": 6979,
      "Rod": 6980,
      "UN": 6981,
      "bass": 6982,
      "dates": 6983,
      "ritual": 6984,
      "ħridge": 6985,
      "ħeed": 6986,
      "ħiences": 6987,
      "ħeda": 6988,
      "ħatus": 6989,
      "ħingly": 6990,
      "ħeless": 6991,
      "ħamy": 6992,
      "ħlywood": 6993,
      "stages": 6994,
      "ħules": 6995,
      "ħopes": 6996,
      "Stone": 6997,
      "unp": 6998,
      "floor": 6999,
      "secondary": 7000,
      "Bridge": 7001,
      "12th": 7002,
      "severe": 7003,
      "coal": 7004,
      "1975": 7005,
      "expanded": 7006,
      "finals": 7007,
      "occas": 7008,
      "Juan": 7009,
      "serving": 7010,
      "antimony": 7011,
      "Barb": 7012,
      "survey": 7013,
      "programs": 7014,
      "glob": 7015,
      "Crown": 7016,
      "System": 7017,
      "People": 7018,
      "Russian": 7019,
      "ħánh": 7020,
      "torpedo": 7021,
      "72": 7022,
      "85": 7023,
      "Aer": 7024,
      "Aven": 7025,
      "Bru": 7026,
      "Men": 7027,
      "Ni": 7028,
      "bow": 7029,
      "green": 7030,
      "ħez": 7031,
      "ħcle": 7032,
      "ħchen": 7033,
      "ħiations": 7034,
      "ħyson": 7035,
      "ħouts": 7036,
      "ħela": 7037,
      "ħads": 7038,
      "comes": 7039,
      "items": 7040,
      "ħusted": 7041,
      "composition": 7042,
      "centuries": 7043,
      "mush": 7044,
      "1965": 7045,
      "1974": 7046,
      "ħographic": 7047,
      "finds": 7048,
      "Evita": 7049,
      "Magazine": 7050,
      "occupied": 7051,
      "Upon": 7052,
      "policy": 7053,
      "exclus": 7054,
      "81": 7055,
      "94": 7056,
      "Bi": 7057,
      "Band": 7058,
      "Gab": 7059,
      "Jac": 7060,
      "Jud": 7061,
      "daily": 7062,
      "faith": 7063,
      "naval": 7064,
      "opt": 7065,
      "ħuate": 7066,
      "ħerts": 7067,
      "ħinate": 7068,
      "ħitan": 7069,
      "ħasure": 7070,
      "ħurches": 7071,
      "ħapes": 7072,
      "ħrupt": 7073,
      "ħizations": 7074,
      "ħublin": 7075,
      "decades": 7076,
      "Marl": 7077,
      "Isab": 7078,
      "Commander": 7079,
      "deaths": 7080,
      "successfully": 7081,
      "losses": 7082,
      "Khánh": 7083,
      "MacLe": 7084,
      "negot": 7085,
      "treatment": 7086,
      "independence": 7087,
      "calc": 7088,
      "slowly": 7089,
      "commissioned": 7090,
      "experienced": 7091,
      "challeng": 7092,
      "ħunicipal": 7093,
      "71": 7094,
      "CD": 7095,
      "Luc": 7096,
      "Rome": 7097,
      "cool": 7098,
      "eas": 7099,
      "eth": 7100,
      "fle": 7101,
      "ħroll": 7102,
      "ħii": 7103,
      "ħwin": 7104,
      "ħanda": 7105,
      "ħistan": 7106,
      "Ing": 7107,
      "ħanga": 7108,
      "flag": 7109,
      "synt": 7110,
      "164": 7111,
      "didn": 7112,
      "trip": 7113,
      "personnel": 7114,
      "sentence": 7115,
      "engaged": 7116,
      "captain": 7117,
      "Songs": 7118,
      "Jamal": 7119,
      "purchased": 7120,
      "Liu": 7121,
      "Avenue": 7122,
      "Brian": 7123,
      "Dublin": 7124,
      "GA": 7125,
      "Hon": 7126,
      "Han": 7127,
      "Mot": 7128,
      "Pers": 7129,
      "Ron": 7130,
      "Spr": 7131,
      "aer": 7132,
      "labor": 7133,
      "ħaire": 7134,
      "ħrot": 7135,
      "ħlyss": 7136,
      "street": 7137,
      "beach": 7138,
      "fresh": 7139,
      "chorus": 7140,
      "nothing": 7141,
      "Chart": 7142,
      "accompl": 7143,
      "Sha": 7144,
      "Science": 7145,
      "160": 7146,
      "concrete": 7147,
      "1946": 7148,
      "southwest": 7149,
      "protagon": 7150,
      "worldwide": 7151,
      "begun": 7152,
      "importance": 7153,
      "propos": 7154,
      "declined": 7155,
      "reasons": 7156,
      "ħategory": 7157,
      "briefly": 7158,
      "Tennyson": 7159,
      "normal": 7160,
      "Throughout": 7161,
      "District": 7162,
      "Baby": 7163,
      "Iguan": 7164,
      "Mov": 7165,
      "Tra": 7166,
      "drawn": 7167,
      "gas": 7168,
      "lin": 7169,
      "nor": 7170,
      "ħeals": 7171,
      "ħwar": 7172,
      "theat": 7173,
      "ħerc": 7174,
      "ħaton": 7175,
      "ħiration": 7176,
      "ħutation": 7177,
      "incident": 7178,
      "ħokes": 7179,
      "Also": 7180,
      "moves": 7181,
      "Leon": 7182,
      "leaders": 7183,
      "1950": 7184,
      "Project": 7185,
      "roads": 7186,
      "Simone": 7187,
      "escape": 7188,
      "Governor": 7189,
      "platform": 7190,
      "Bern": 7191,
      "Gi": 7192,
      "Jes": 7193,
      "Row": 7194,
      "Ray": 7195,
      "Tru": 7196,
      "dance": 7197,
      "hired": 7198,
      "pet": 7199,
      "rar": 7200,
      "rac": 7201,
      "tall": 7202,
      "tend": 7203,
      "witness": 7204,
      "ħof": 7205,
      "ħla": 7206,
      "ħset": 7207,
      "ħuan": 7208,
      "ħality": 7209,
      "ħamin": 7210,
      "isol": 7211,
      "plum": 7212,
      "spons": 7213,
      "firm": 7214,
      "ħquake": 7215,
      "unf": 7216,
      "Albert": 7217,
      "flu": 7218,
      "decade": 7219,
      "ħooking": 7220,
      "Maria": 7221,
      "foundation": 7222,
      "longest": 7223,
      "1966": 7224,
      "1952": 7225,
      "1936": 7226,
      "guard": 7227,
      "1919": 7228,
      "arrival": 7229,
      "possibility": 7230,
      "chapter": 7231,
      "billion": 7232,
      "participated": 7233,
      "unsu": 7234,
      "Temple": 7235,
      "Area": 7236,
      "enjoyed": 7237,
      "responded": 7238,
      "Family": 7239,
      "Production": 7240,
      "paintings": 7241,
      "ħrespond": 7242,
      "Development": 7243,
      "senior": 7244,
      "accompanied": 7245,
      "MacLeod": 7246,
      "Board": 7247,
      "Dream": 7248,
      "Five": 7249,
      "Rox": 7250,
      "Sk": 7251,
      "Ulyss": 7252,
      "jack": 7253,
      "ring": 7254,
      "vert": 7255,
      "wides": 7256,
      "ħrons": 7257,
      "ħBS": 7258,
      "ħía": 7259,
      "ħisers": 7260,
      "stret": 7261,
      "ħosa": 7262,
      "ħestone": 7263,
      "ħrie": 7264,
      "heard": 7265,
      "ħichol": 7266,
      "Chains": 7267,
      "resear": 7268,
      "adap": 7269,
      "Ali": 7270,
      "ħifications": 7271,
      "setting": 7272,
      "110": 7273,
      "177": 7274,
      "developing": 7275,
      "passeng": 7276,
      "oldest": 7277,
      "Phill": 7278,
      "squad": 7279,
      "agreement": 7280,
      "dollar": 7281,
      "ħhetic": 7282,
      "roughly": 7283,
      "Admir": 7284,
      "Summer": 7285,
      "Ulysses": 7286,
      "77": 7287,
      "Bor": 7288,
      "Bond": 7289,
      "Tim": 7290,
      "Wall": 7291,
      "dog": 7292,
      "ħchest": 7293,
      "ħycl": 7294,
      "ħpread": 7295,
      "ħOC": 7296,
      "ħimet": 7297,
      "choice": 7298,
      "ħpty": 7299,
      "remn": 7300,
      "consists": 7301,
      "decre": 7302,
      "accident": 7303,
      "calls": 7304,
      "transit": 7305,
      "adding": 7306,
      "populations": 7307,
      "1973": 7308,
      "Const": 7309,
      "1930": 7310,
      "protest": 7311,
      "lasted": 7312,
      "Brook": 7313,
      "combination": 7314,
      "technology": 7315,
      "existence": 7316,
      "violence": 7317,
      "regarding": 7318,
      "dominated": 7319,
      "poetry": 7320,
      "athletes": 7321,
      "Francisc": 7322,
      "symbol": 7323,
      "Dougl": 7324,
      "Turkish": 7325,
      "Anthony": 7326,
      "Instead": 7327,
      "59": 7328,
      "Bishop": 7329,
      "Never": 7330,
      "fellow": 7331,
      "pal": 7332,
      "sle": 7333,
      "ħcome": 7334,
      "ħaver": 7335,
      "ħje": 7336,
      "ħato": 7337,
      "ħorter": 7338,
      "ħitors": 7339,
      "ħici": 7340,
      "Theatre": 7341,
      "ħiday": 7342,
      "ħote": 7343,
      "ħusal": 7344,
      "comic": 7345,
      "ħiston": 7346,
      "seat": 7347,
      "note": 7348,
      "contrib": 7349,
      "reserv": 7350,
      "impr": 7351,
      "committee": 7352,
      "Marc": 7353,
      "undert": 7354,
      "filming": 7355,
      "assass": 7356,
      "submar": 7357,
      "acres": 7358,
      "ħphy": 7359,
      "Anonymous": 7360,
      "door": 7361,
      "Carib": 7362,
      "performing": 7363,
      "1967": 7364,
      "ħructure": 7365,
      "college": 7366,
      "clubs": 7367,
      "ħurring": 7368,
      "towns": 7369,
      "competitions": 7370,
      "Georg": 7371,
      "association": 7372,
      "closely": 7373,
      "Braz": 7374,
      "Ode": 7375,
      "existing": 7376,
      "applied": 7377,
      "pilot": 7378,
      "habitat": 7379,
      "Radio": 7380,
      "weakened": 7381,
      "Hornung": 7382,
      "unsuccess": 7383,
      "66": 7384,
      "98": 7385,
      "Aston": 7386,
      "AML": 7387,
      "Kenn": 7388,
      "Sap": 7389,
      "fashion": 7390,
      "ps": 7391,
      "ton": 7392,
      "tells": 7393,
      "ħcom": 7394,
      "ħlaim": 7395,
      "ħym": 7396,
      "ħborn": 7397,
      "ħburg": 7398,
      "ħading": 7399,
      "ħusc": 7400,
      "ħagre": 7401,
      "truth": 7402,
      "reconst": 7403,
      "perhaps": 7404,
      "descend": 7405,
      "substant": 7406,
      "capable": 7407,
      "175": 7408,
      "distingu": 7409,
      "provides": 7410,
      "neither": 7411,
      "1930s": 7412,
      "1914": 7413,
      "battalions": 7414,
      "details": 7415,
      "serves": 7416,
      "greatly": 7417,
      "ħriptions": 7418,
      "correspond": 7419,
      "Mountain": 7420,
      "learned": 7421,
      "painting": 7422,
      "archaeological": 7423,
      "derived": 7424,
      "purpose": 7425,
      "administration": 7426,
      "opportunity": 7427,
      "ceremony": 7428,
      "occasionally": 7429,
      "Caribbe": 7430,
      "6th": 7431,
      "Dota": 7432,
      "Life": 7433,
      "Mel": 7434,
      "Oh": 7435,
      "bought": 7436,
      "hyp": 7437,
      "rif": 7438,
      "root": 7439,
      "roof": 7440,
      "som": 7441,
      "sort": 7442,
      "sail": 7443,
      "ħbo": 7444,
      "ħOT": 7445,
      "ħisf": 7446,
      "ħentially": 7447,
      "thing": 7448,
      "ħamm": 7449,
      "ħuri": 7450,
      "ħola": 7451,
      "ones": 7452,
      "ħagn": 7453,
      "ħagle": 7454,
      "churches": 7455,
      "Stew": 7456,
      "ħelli": 7457,
      "ħrait": 7458,
      "ħrug": 7459,
      "ħountain": 7460,
      "shel": 7461,
      "basket": 7462,
      "grav": 7463,
      "supposed": 7464,
      "invited": 7465,
      "emp": 7466,
      "receiving": 7467,
      "headed": 7468,
      "editor": 7469,
      "protection": 7470,
      "storyline": 7471,
      "Broad": 7472,
      "skin": 7473,
      "speaking": 7474,
      "correct": 7475,
      "household": 7476,
      "technique": 7477,
      "neck": 7478,
      "innings": 7479,
      "Archae": 7480,
      "filled": 7481,
      "vehicles": 7482,
      "dissipated": 7483,
      "Chelsea": 7484,
      "Douglas": 7485,
      "Caribbean": 7486,
      "Det": 7487,
      "ERA": 7488,
      "IG": 7489,
      "Jay": 7490,
      "Low": 7491,
      "Lieutenant": 7492,
      "Real": 7493,
      "Vol": 7494,
      "aim": 7495,
      "cit": 7496,
      "drew": 7497,
      "hat": 7498,
      "ign": 7499,
      "ħaud": 7500,
      "ħlik": 7501,
      "ħvar": 7502,
      "ħpass": 7503,
      "ħRE": 7504,
      "ħVN": 7505,
      "Inc": 7506,
      "ħabil": 7507,
      "seg": 7508,
      "evac": 7509,
      "Freder": 7510,
      "subt": 7511,
      "acid": 7512,
      "Asia": 7513,
      "ħropri": 7514,
      "goes": 7515,
      "branch": 7516,
      "1945": 7517,
      "1971": 7518,
      "What": 7519,
      "receive": 7520,
      "anything": 7521,
      "depict": 7522,
      "classified": 7523,
      "typical": 7524,
      "viewed": 7525,
      "About": 7526,
      "Perry": 7527,
      "Georgian": 7528,
      "survived": 7529,
      "islands": 7530,
      "ħiece": 7531,
      "ħidden": 7532,
      "massive": 7533,
      "motion": 7534,
      "stopped": 7535,
      "Maeda": 7536,
      "drama": 7537,
      "southeast": 7538,
      "astron": 7539,
      "Constantine": 7540,
      "Hibari": 7541,
      "Friends": 7542,
      "Daniel": 7543,
      "widespread": 7544,
      "3D": 7545,
      "Age": 7546,
      "Down": 7547,
      "Hard": 7548,
      "Kil": 7549,
      "MTV": 7550,
      "Qedar": 7551,
      "Ré": 7552,
      "Run": 7553,
      "Rio": 7554,
      "Top": 7555,
      "Wind": 7556,
      "fuel": 7557,
      "gal": 7558,
      "load": 7559,
      "rot": 7560,
      "ħras": 7561,
      "ħruli": 7562,
      "ħoe": 7563,
      "ħtty": 7564,
      "ħni": 7565,
      "ħona": 7566,
      "ħario": 7567,
      "ħilton": 7568,
      "ħacity": 7569,
      "why": 7570,
      "ħaked": 7571,
      "ħighter": 7572,
      "cho": 7573,
      "shared": 7574,
      "trying": 7575,
      "ħpton": 7576,
      "ħiege": 7577,
      "adult": 7578,
      "ħiously": 7579,
      "flights": 7580,
      "ħanned": 7581,
      "soft": 7582,
      "1982": 7583,
      "176": 7584,
      "district": 7585,
      "Princ": 7586,
      "authors": 7587,
      "initi": 7588,
      "Romani": 7589,
      "Simon": 7590,
      "settlers": 7591,
      "missing": 7592,
      "focused": 7593,
      "ħglades": 7594,
      "Golden": 7595,
      "acquired": 7596,
      "safety": 7597,
      "digital": 7598,
      "ħibrary": 7599,
      "Fantasy": 7600,
      "repeated": 7601,
      "converted": 7602,
      "Gram": 7603,
      "Jones": 7604,
      "Patt": 7605,
      "Sound": 7606,
      "cab": 7607,
      "dub": 7608,
      "ice": 7609,
      "rich": 7610,
      "ħcription": 7611,
      "ħinosaur": 7612,
      "ħstances": 7613,
      "ħrog": 7614,
      "ħlying": 7615,
      "ħidges": 7616,
      "ħiful": 7617,
      "channel": 7618,
      "exact": 7619,
      "Stadium": 7620,
      "spacing": 7621,
      "legend": 7622,
      "ħube": 7623,
      "ħucing": 7624,
      "ħilding": 7625,
      "ħissance": 7626,
      "ħeget": 7627,
      "baseball": 7628,
      "locations": 7629,
      "1980": 7630,
      "1976": 7631,
      "finish": 7632,
      "depicted": 7633,
      "1956": 7634,
      "1916": 7635,
      "1913": 7636,
      "250": 7637,
      "glass": 7638,
      "ħreme": 7639,
      "watched": 7640,
      "holding": 7641,
      "rebu": 7642,
      "funding": 7643,
      "Holy": 7644,
      "Moz": 7645,
      "planning": 7646,
      "Surv": 7647,
      "arranged": 7648,
      "Oslo": 7649,
      "routes": 7650,
      "instrument": 7651,
      "Haiti": 7652,
      "succeeded": 7653,
      "permanent": 7654,
      "Venus": 7655,
      "opinion": 7656,
      "Shortly": 7657,
      "atmosphere": 7658,
      "Phoen": 7659,
      "wedding": 7660,
      "Iguanodon": 7661,
      "Brazil": 7662,
      "69": 7663,
      "87": 7664,
      "8th": 7665,
      "Kat": 7666,
      "Lenn": 7667,
      "Mah": 7668,
      "Roy": 7669,
      "bowl": 7670,
      "crop": 7671,
      "mut": 7672,
      "micro": 7673,
      "rose": 7674,
      "wick": 7675,
      "ħrab": 7676,
      "ħanth": 7677,
      "ħigation": 7678,
      "ħessing": 7679,
      "ħrier": 7680,
      "ħapers": 7681,
      "chance": 7682,
      "intention": 7683,
      "resident": 7684,
      "ħmann": 7685,
      "Arts": 7686,
      "knew": 7687,
      "decline": 7688,
      "ħoba": 7689,
      "assemb": 7690,
      "defined": 7691,
      "revers": 7692,
      "revolution": 7693,
      "10th": 7694,
      "112": 7695,
      "1943": 7696,
      "providing": 7697,
      "Allied": 7698,
      "protect": 7699,
      "reality": 7700,
      "ħipping": 7701,
      "Similar": 7702,
      "creator": 7703,
      "penalty": 7704,
      "urban": 7705,
      "earthquake": 7706,
      "credited": 7707,
      "Secretary": 7708,
      "Gil": 7709,
      "Gully": 7710,
      "Hell": 7711,
      "Homer": 7712,
      "Kel": 7713,
      "Rangers": 7714,
      "Snow": 7715,
      "Wy": 7716,
      "Ye": 7717,
      "dating": 7718,
      "eur": 7719,
      "rub": 7720,
      "sun": 7721,
      "tied": 7722,
      "wins": 7723,
      "ħLI": 7724,
      "ħaser": 7725,
      "ħrec": 7726,
      "ħuration": 7727,
      "ħiminal": 7728,
      "cong": 7729,
      "ħandy": 7730,
      "Chronic": 7731,
      "pregn": 7732,
      "ħevo": 7733,
      "ħformation": 7734,
      "1963": 7735,
      "airport": 7736,
      "download": 7737,
      "moder": 7738,
      "heads": 7739,
      "ways": 7740,
      "explos": 7741,
      "Abb": 7742,
      "laws": 7743,
      "technical": 7744,
      "separated": 7745,
      "renamed": 7746,
      "Everglades": 7747,
      "Stevens": 7748,
      "Hindu": 7749,
      "thousands": 7750,
      "delivered": 7751,
      "supplies": 7752,
      "Morrison": 7753,
      "Additionally": 7754,
      "IGN": 7755,
      "Ly": 7756,
      "Mul": 7757,
      "UTC": 7758,
      "bul": 7759,
      "dry": 7760,
      "fair": 7761,
      "powers": 7762,
      "rural": 7763,
      "san": 7764,
      "ħront": 7765,
      "ħture": 7766,
      "ħgé": 7767,
      "ħbur": 7768,
      "ħhl": 7769,
      "ħSB": 7770,
      "ħoral": 7771,
      "ħador": 7772,
      "recru": 7773,
      "enl": 7774,
      "ħissipp": 7775,
      "Arthur": 7776,
      "secure": 7777,
      "ħattle": 7778,
      "teaching": 7779,
      "regime": 7780,
      "emperor": 7781,
      "Committee": 7782,
      "Australians": 7783,
      "turning": 7784,
      "commanded": 7785,
      "opposition": 7786,
      "ħivalent": 7787,
      "courts": 7788,
      "surviv": 7789,
      "Mississipp": 7790,
      "certified": 7791,
      "Hollywood": 7792,
      "Walter": 7793,
      "eyes": 7794,
      "assistance": 7795,
      "Office": 7796,
      "remainder": 7797,
      "journey": 7798,
      "indicate": 7799,
      "consisting": 7800,
      "Bradford": 7801,
      "Alexander": 7802,
      "Columbia": 7803,
      "Sunday": 7804,
      "Truj": 7805,
      "Cop": 7806,
      "Far": 7807,
      "Fire": 7808,
      "Native": 7809,
      "Ro": 7810,
      "Seas": 7811,
      "Sev": 7812,
      "baby": 7813,
      "card": 7814,
      "eld": 7815,
      "harm": 7816,
      "ll": 7817,
      "lit": 7818,
      "lov": 7819,
      "pup": 7820,
      "ħcer": 7821,
      "ħhat": 7822,
      "ħerted": 7823,
      "ħopher": 7824,
      "sud": 7825,
      "Int": 7826,
      "ħilling": 7827,
      "ħardo": 7828,
      "attached": 7829,
      "ħribed": 7830,
      "Marine": 7831,
      "highlight": 7832,
      "noisy": 7833,
      "surrender": 7834,
      "16th": 7835,
      "quite": 7836,
      "11th": 7837,
      "1978": 7838,
      "disturb": 7839,
      "occurs": 7840,
      "1953": 7841,
      "camps": 7842,
      "turns": 7843,
      "references": 7844,
      "valley": 7845,
      "Montana": 7846,
      "Maryland": 7847,
      "economy": 7848,
      "establishment": 7849,
      "Croatian": 7850,
      "Democr": 7851,
      "Critical": 7852,
      "Director": 7853,
      "Trujillo": 7854,
      "Dom": 7855,
      "Fish": 7856,
      "ML": 7857,
      "Mid": 7858,
      "Master": 7859,
      "Pu": 7860,
      "Sav": 7861,
      "fan": 7862,
      "vic": 7863,
      "ħrating": 7864,
      "ħmit": 7865,
      "ħasing": 7866,
      "ħeline": 7867,
      "ħentions": 7868,
      "ħothes": 7869,
      "ħagues": 7870,
      "ħuma": 7871,
      "ħripts": 7872,
      "ħewhere": 7873,
      "ħaka": 7874,
      "Stef": 7875,
      "leaves": 7876,
      "resist": 7877,
      "Alan": 7878,
      "interior": 7879,
      "monarch": 7880,
      "studied": 7881,
      "leads": 7882,
      "distribution": 7883,
      "finishing": 7884,
      "producing": 7885,
      "successor": 7886,
      "ħception": 7887,
      "convention": 7888,
      "replace": 7889,
      "views": 7890,
      "reputation": 7891,
      "circum": 7892,
      "missions": 7893,
      "denied": 7894,
      "immig": 7895,
      "Samuel": 7896,
      "shooting": 7897,
      "methods": 7898,
      "portrayed": 7899,
      "puzz": 7900,
      "Charlie": 7901,
      "Engineer": 7902,
      "hydro": 7903,
      "Roxas": 7904,
      "adapted": 7905,
      "Mississippi": 7906,
      "7th": 7907,
      "91": 7908,
      "Di": 7909,
      "Hug": 7910,
      "NBC": 7911,
      "Press": 7912,
      "kits": 7913,
      "lic": 7914,
      "lane": 7915,
      "worth": 7916,
      "ħaising": 7917,
      "ħić": 7918,
      "ħients": 7919,
      "ħdal": 7920,
      "ħinster": 7921,
      "ħorer": 7922,
      "ħreal": 7923,
      "ħrell": 7924,
      "ħlements": 7925,
      "store": 7926,
      "franch": 7927,
      "ħunket": 7928,
      "hear": 7929,
      "ħonder": 7930,
      "offense": 7931,
      "prey": 7932,
      "upd": 7933,
      "gameplay": 7934,
      "maintain": 7935,
      "Plunket": 7936,
      "characteristics": 7937,
      "1915": 7938,
      "entry": 7939,
      "protected": 7940,
      "crime": 7941,
      "Recording": 7942,
      "window": 7943,
      "Within": 7944,
      "politics": 7945,
      "entering": 7946,
      "getting": 7947,
      "predec": 7948,
      "Activision": 7949,
      "motor": 7950,
      "Howard": 7951,
      "ħsenal": 7952,
      "worst": 7953,
      "Stephen": 7954,
      "dismissed": 7955,
      "intelligence": 7956,
      "79": 7957,
      "Bos": 7958,
      "DNA": 7959,
      "Nether": 7960,
      "Ridge": 7961,
      "Ts": 7962,
      "cry": 7963,
      "crown": 7964,
      "die": 7965,
      "drug": 7966,
      "pound": 7967,
      "ru": 7968,
      "tell": 7969,
      "von": 7970,
      "ħaug": 7971,
      "ħiar": 7972,
      "ħ30": 7973,
      "tomb": 7974,
      "ħelve": 7975,
      "ħamber": 7976,
      "ħacent": 7977,
      "stones": 7978,
      "ħthm": 7979,
      "ħpping": 7980,
      "exerc": 7981,
      "noting": 7982,
      "resour": 7983,
      "ħender": 7984,
      "attributed": 7985,
      "outl": 7986,
      "knots": 7987,
      "Marsh": 7988,
      "charts": 7989,
      "charges": 7990,
      "retire": 7991,
      "interested": 7992,
      "basin": 7993,
      "monument": 7994,
      "122": 7995,
      "capacity": 7996,
      "colle": 7997,
      "classes": 7998,
      "experiment": 7999,
      "Eliz": 8000,
      "novels": 8001,
      "historic": 8002,
      "introduction": 8003,
      "Calvert": 8004,
      "electric": 8005,
      "holds": 8006,
      "tribes": 8007,
      "discussed": 8008,
      "dollars": 8009,
      "mushroom": 8010,
      "Isabella": 8011,
      "74": 8012,
      "Danny": 8013,
      "Gang": 8014,
      "Jersey": 8015,
      "Pope": 8016,
      "Sor": 8017,
      "Trib": 8018,
      "Walk": 8019,
      "cinem": 8020,
      "fer": 8021,
      "sector": 8022,
      "van": 8023,
      "vary": 8024,
      "vision": 8025,
      "ħtaining": 8026,
      "ħwise": 8027,
      "ħeness": 8028,
      "ħitage": 8029,
      "ħitled": 8030,
      "ħuls": 8031,
      "ħosis": 8032,
      "ħosure": 8033,
      "pros": 8034,
      "ħangerous": 8035,
      "agent": 8036,
      "offers": 8037,
      "ħockey": 8038,
      "ħaws": 8039,
      "charter": 8040,
      "accounts": 8041,
      "publisher": 8042,
      "sym": 8043,
      "ħajevo": 8044,
      "appearing": 8045,
      "1948": 8046,
      "describing": 8047,
      "generation": 8048,
      "1917": 8049,
      "medieval": 8050,
      "solid": 8051,
      "fields": 8052,
      "statement": 8053,
      "younger": 8054,
      "pitch": 8055,
      "coastal": 8056,
      "ruled": 8057,
      "rules": 8058,
      "chapel": 8059,
      "colonial": 8060,
      "Team": 8061,
      "Sarajevo": 8062,
      "Weekly": 8063,
      "Lisa": 8064,
      "Industry": 8065,
      "88": 8066,
      "99": 8067,
      "Cru": 8068,
      "Daily": 8069,
      "Here": 8070,
      "Jif": 8071,
      "Net": 8072,
      "Wars": 8073,
      "bond": 8074,
      "caught": 8075,
      "ec": 8076,
      "hope": 8077,
      "kings": 8078,
      "zone": 8079,
      "ħnell": 8080,
      "ħwater": 8081,
      "ħbreak": 8082,
      "ħfri": 8083,
      "ħ6th": 8084,
      "inner": 8085,
      "ħrets": 8086,
      "forests": 8087,
      "ħivals": 8088,
      "ħowed": 8089,
      "ħateur": 8090,
      "ħocal": 8091,
      "plants": 8092,
      "arts": 8093,
      "releg": 8094,
      "unn": 8095,
      "desire": 8096,
      "manner": 8097,
      "someone": 8098,
      "basic": 8099,
      "soil": 8100,
      "1979": 8101,
      "1951": 8102,
      "ħintend": 8103,
      "Earl": 8104,
      "everything": 8105,
      "ħoffman": 8106,
      "discovery": 8107,
      "difficulty": 8108,
      "recognition": 8109,
      "exception": 8110,
      "apart": 8111,
      "Strand": 8112,
      "Campb": 8113,
      "principal": 8114,
      "considerable": 8115,
      "Victoria": 8116,
      "disappear": 8117,
      "emotional": 8118,
      "ninth": 8119,
      "Yankovic": 8120,
      "Destiny": 8121,
      "article": 8122,
      "restaurant": 8123,
      "synthes": 8124,
      "rarely": 8125,
      "Frederick": 8126,
      "Around": 8127,
      "Fair": 8128,
      "Hung": 8129,
      "Jun": 8130,
      "Rem": 8131,
      "Rolling": 8132,
      "Sel": 8133,
      "cold": 8134,
      "gall": 8135,
      "hill": 8136,
      "hall": 8137,
      "mine": 8138,
      "nob": 8139,
      "pool": 8140,
      "taught": 8141,
      "worship": 8142,
      "ħbles": 8143,
      "ħknow": 8144,
      "ħānt": 8145,
      "ħiling": 8146,
      "ħaments": 8147,
      "ħigades": 8148,
      "ħaga": 8149,
      "ħavia": 8150,
      "ħopp": 8151,
      "ħunion": 8152,
      "Init": 8153,
      "ħables": 8154,
      "ħabeth": 8155,
      "ħacked": 8156,
      "ħipe": 8157,
      "ħultane": 8158,
      "wealth": 8159,
      "Joe": 8160,
      "121": 8161,
      "Lee": 8162,
      "1961": 8163,
      "landed": 8164,
      "1954": 8165,
      "evening": 8166,
      "Organ": 8167,
      "opponents": 8168,
      "replacement": 8169,
      "involvement": 8170,
      "ħgraded": 8171,
      "volunte": 8172,
      "nomination": 8173,
      "specifically": 8174,
      "wooden": 8175,
      "Television": 8176,
      "Transport": 8177,
      "hotel": 8178,
      "Somali": 8179,
      "Clarkson": 8180,
      "thirty": 8181,
      "aggress": 8182,
      "Mozamb": 8183,
      "sudden": 8184,
      "AR": 8185,
      "Cas": 8186,
      "Cam": 8187,
      "DA": 8188,
      "Fame": 8189,
      "Germ": 8190,
      "Lords": 8191,
      "Si": 8192,
      "Santa": 8193,
      "fish": 8194,
      "jazz": 8195,
      "tie": 8196,
      "veget": 8197,
      "ħrant": 8198,
      "ħde": 8199,
      "ħyles": 8200,
      "ħkh": 8201,
      "ħAC": 8202,
      "ħatures": 8203,
      "ħorous": 8204,
      "ħenz": 8205,
      "ħingale": 8206,
      "ħician": 8207,
      "ħreets": 8208,
      "stream": 8209,
      "ħemia": 8210,
      "ħusing": 8211,
      "consequ": 8212,
      "ħumps": 8213,
      "ħrif": 8214,
      "ħistol": 8215,
      "leuk": 8216,
      "scrap": 8217,
      "secured": 8218,
      "accur": 8219,
      "ħropol": 8220,
      "ħrows": 8221,
      "ħraph": 8222,
      "ħinking": 8223,
      "carbon": 8224,
      "1937": 8225,
      "believes": 8226,
      "Order": 8227,
      "ħpsons": 8228,
      "communities": 8229,
      "Simpsons": 8230,
      "divine": 8231,
      "Roberts": 8232,
      "poems": 8233,
      "Duke": 8234,
      "ħaska": 8235,
      "industrial": 8236,
      "Singles": 8237,
      "Jerusal": 8238,
      "intersection": 8239,
      "picked": 8240,
      "controversy": 8241,
      "Wilde": 8242,
      "recommended": 8243,
      "Colonel": 8244,
      "split": 8245,
      "ħranean": 8246,
      "Bono": 8247,
      "Skye": 8248,
      "fungus": 8249,
      "Modern": 8250,
      "Brien": 8251,
      "Spring": 8252,
      "Francisco": 8253,
      "Jifna": 8254,
      "Jerusalem": 8255,
      "Ball": 8256,
      "Cab": 8257,
      "Cory": 8258,
      "Chen": 8259,
      "Nap": 8260,
      "Nick": 8261,
      "Rif": 8262,
      "Win": 8263,
      "dock": 8264,
      "fit": 8265,
      "faces": 8266,
      "municipal": 8267,
      "sed": 8268,
      "soul": 8269,
      "tal": 8270,
      "vide": 8271,
      "ħrast": 8272,
      "ħtheless": 8273,
      "ħeland": 8274,
      "ħagu": 8275,
      "ħapped": 8276,
      "subs": 8277,
      "whereas": 8278,
      "Ash": 8279,
      "Carter": 8280,
      "ħertain": 8281,
      "strateg": 8282,
      "leadership": 8283,
      "signing": 8284,
      "Plot": 8285,
      "depend": 8286,
      "Track": 8287,
      "1955": 8288,
      "Adams": 8289,
      "Prime": 8290,
      "criminal": 8291,
      "organizations": 8292,
      "ħiveness": 8293,
      "legs": 8294,
      "standards": 8295,
      "joint": 8296,
      "Hamilton": 8297,
      "appoint": 8298,
      "missed": 8299,
      "drawing": 8300,
      "launch": 8301,
      "absor": 8302,
      "Olympics": 8303,
      "concerns": 8304,
      "Military": 8305,
      "scholar": 8306,
      "Human": 8307,
      "extremely": 8308,
      "specimens": 8309,
      "Independent": 8310,
      "Argentina": 8311,
      "wrong": 8312,
      "parallel": 8313,
      "82": 8314,
      "89": 8315,
      "AD": 8316,
      "Power": 8317,
      "bes": 8318,
      "ble": 8319,
      "session": 8320,
      "youth": 8321,
      "ħait": 8322,
      "ħlan": 8323,
      "ħsch": 8324,
      "ħonica": 8325,
      "ħinger": 8326,
      "ħotes": 8327,
      "ħimal": 8328,
      "conference": 8329,
      "1900": 8330,
      "existed": 8331,
      "parties": 8332,
      "ħwealth": 8333,
      "teeth": 8334,
      "indig": 8335,
      "Anc": 8336,
      "minister": 8337,
      "showing": 8338,
      "ħiversary": 8339,
      "distributed": 8340,
      "warm": 8341,
      "Forces": 8342,
      "1958": 8343,
      "collect": 8344,
      "ħscape": 8345,
      "Beach": 8346,
      "tries": 8347,
      "approached": 8348,
      "demol": 8349,
      "speech": 8350,
      "connection": 8351,
      "relationships": 8352,
      "treaty": 8353,
      "threatened": 8354,
      "surrounded": 8355,
      "emerged": 8356,
      "chemical": 8357,
      "Writing": 8358,
      "diameter": 8359,
      "Banai": 8360,
      "Ryan": 8361,
      "psych": 8362,
      "europium": 8363,
      "Bank": 8364,
      "CE": 8365,
      "IV": 8366,
      "Iron": 8367,
      "Pul": 8368,
      "WW": 8369,
      "bat": 8370,
      "fal": 8371,
      "il": 8372,
      "ib": 8373,
      "mart": 8374,
      "page": 8375,
      "table": 8376,
      "wants": 8377,
      "ħray": 8378,
      "ħrates": 8379,
      "ħois": 8380,
      "ħzen": 8381,
      "ħCA": 8382,
      "ħonic": 8383,
      "ħedom": 8384,
      "ħorgan": 8385,
      "ħitals": 8386,
      "stem": 8387,
      "ħutt": 8388,
      "alien": 8389,
      "ħavāda": 8390,
      "ħoca": 8391,
      "ħuda": 8392,
      "shark": 8393,
      "Chief": 8394,
      "firing": 8395,
      "overw": 8396,
      "partial": 8397,
      "ħensis": 8398,
      "decor": 8399,
      "bright": 8400,
      "1949": 8401,
      "1977": 8402,
      "Isl": 8403,
      "expansion": 8404,
      "department": 8405,
      "pointed": 8406,
      "ħaurus": 8407,
      "oppos": 8408,
      "historians": 8409,
      "equal": 8410,
      "Depression": 8411,
      "admitted": 8412,
      "seeing": 8413,
      "facing": 8414,
      "crossed": 8415,
      "regularly": 8416,
      "immediate": 8417,
      "railway": 8418,
      "favorite": 8419,
      "hoped": 8420,
      "constitution": 8421,
      "institutions": 8422,
      "apparent": 8423,
      "alternative": 8424,
      "lbw": 8425,
      "ratings": 8426,
      "documentary": 8427,
      "Norman": 8428,
      "Roger": 8429,
      "expedition": 8430,
      "unusual": 8431,
      "isolated": 8432,
      "citiz": 8433,
      "Lennon": 8434,
      "07": 8435,
      "63": 8436,
      "Ald": 8437,
      "Dur": 8438,
      "Disc": 8439,
      "Fern": 8440,
      "Goffman": 8441,
      "Person": 8442,
      "eighth": 8443,
      "lap": 8444,
      "mort": 8445,
      "sulf": 8446,
      "ħooth": 8447,
      "ħiour": 8448,
      "ħwich": 8449,
      "ħkey": 8450,
      "ħívar": 8451,
      "inland": 8452,
      "ħaya": 8453,
      "ħuses": 8454,
      "ħusad": 8455,
      "champion": 8456,
      "trail": 8457,
      "recre": 8458,
      "Unlike": 8459,
      "ħformed": 8460,
      "consum": 8461,
      "regional": 8462,
      "assumed": 8463,
      "owner": 8464,
      "designation": 8465,
      "13th": 8466,
      "ħossible": 8467,
      "anniversary": 8468,
      "Hergé": 8469,
      "detail": 8470,
      "protests": 8471,
      "breaking": 8472,
      "reviewer": 8473,
      "marks": 8474,
      "repair": 8475,
      "strongly": 8476,
      "changing": 8477,
      "ħombat": 8478,
      "destroyers": 8479,
      "watch": 8480,
      "treated": 8481,
      "languages": 8482,
      "sequel": 8483,
      "literary": 8484,
      "Territ": 8485,
      "ancest": 8486,
      "examples": 8487,
      "bringing": 8488,
      "Janeiro": 8489,
      "watershed": 8490,
      "Bolívar": 8491,
      "inhabit": 8492,
      "message": 8493,
      "Rhodes": 8494,
      "duties": 8495,
      "romantic": 8496,
      "protagonist": 8497,
      "Saprang": 8498,
      "Kilmer": 8499,
      "franchise": 8500,
      "06": 8501,
      "93": 8502,
      "Bert": 8503,
      "Lanc": 8504,
      "PA": 8505,
      "Pine": 8506,
      "Test": 8507,
      "Tower": 8508,
      "Wimb": 8509,
      "bigg": 8510,
      "sections": 8511,
      "winner": 8512,
      "ħiary": 8513,
      "ħses": 8514,
      "ħware": 8515,
      "ħerog": 8516,
      "ħorters": 8517,
      "ħesc": 8518,
      "ħelet": 8519,
      "ħsta": 8520,
      "ħiders": 8521,
      "stadium": 8522,
      "ħemet": 8523,
      "ħosm": 8524,
      "orchest": 8525,
      "Station": 8526,
      "Story": 8527,
      "Stock": 8528,
      "ħiants": 8529,
      "ħogether": 8530,
      "aged": 8531,
      "ħprising": 8532,
      "ħaction": 8533,
      "ħeased": 8534,
      "flo": 8535,
      "retreat": 8536,
      "indicated": 8537,
      "meets": 8538,
      "ħekānt": 8539,
      "1983": 8540,
      "ħledon": 8541,
      "airline": 8542,
      "instruct": 8543,
      "Gerard": 8544,
      "Adam": 8545,
      "completion": 8546,
      "Color": 8547,
      "Guy": 8548,
      "ħometric": 8549,
      "detailed": 8550,
      "approved": 8551,
      "1920": 8552,
      "ħistered": 8553,
      "ħencies": 8554,
      "genre": 8555,
      "coup": 8556,
      "superv": 8557,
      "improve": 8558,
      "engineering": 8559,
      "grey": 8560,
      "Square": 8561,
      "Research": 8562,
      "Lawton": 8563,
      "Jean": 8564,
      "attracted": 8565,
      "BCE": 8566,
      "ħonnaissance": 8567,
      "Hearts": 8568,
      "wearing": 8569,
      "specimen": 8570,
      "Burns": 8571,
      "rescue": 8572,
      "Journal": 8573,
      "academic": 8574,
      "eggs": 8575,
      "easily": 8576,
      "Georgia": 8577,
      "Wimbledon": 8578,
      "Bass": 8579,
      "Cook": 8580,
      "Corn": 8581,
      "Mortal": 8582,
      "Neb": 8583,
      "Raj": 8584,
      "Sa": 8585,
      "Sher": 8586,
      "Wolf": 8587,
      "Xe": 8588,
      "bay": 8589,
      "cul": 8590,
      "happy": 8591,
      "lob": 8592,
      "ocean": 8593,
      "poll": 8594,
      "sell": 8595,
      "ħmel": 8596,
      "ħhow": 8597,
      "ħurd": 8598,
      "streak": 8599,
      "conqu": 8600,
      "proport": 8601,
      "ħeare": 8602,
      "shif": 8603,
      "ħoured": 8604,
      "spaces": 8605,
      "ħoked": 8606,
      "cloud": 8607,
      "Third": 8608,
      "preced": 8609,
      "flat": 8610,
      "acknow": 8611,
      "accused": 8612,
      "interchange": 8613,
      "coord": 8614,
      "162": 8615,
      "depos": 8616,
      "implement": 8617,
      "starling": 8618,
      "medium": 8619,
      "terminus": 8620,
      "attempting": 8621,
      "surviving": 8622,
      "reading": 8623,
      "catch": 8624,
      "looked": 8625,
      "settled": 8626,
      "inspiration": 8627,
      "practices": 8628,
      "territories": 8629,
      "civilian": 8630,
      "effectively": 8631,
      "Richardson": 8632,
      "traveled": 8633,
      "feeling": 8634,
      "assistant": 8635,
      "Cambridge": 8636,
      "challenge": 8637,
      "Somalia": 8638,
      "Attorney": 8639,
      "encouraged": 8640,
      "adjacent": 8641,
      "agricultural": 8642,
      "ethn": 8643,
      "Admiral": 8644,
      "05": 8645,
      "58": 8646,
      "Bed": 8647,
      "Dark": 8648,
      "Es": 8649,
      "Hor": 8650,
      "Kombat": 8651,
      "Lab": 8652,
      "Now": 8653,
      "Pass": 8654,
      "Sb": 8655,
      "Ton": 8656,
      "et": 8657,
      "none": 8658,
      "nick": 8659,
      "races": 8660,
      "sam": 8661,
      "swe": 8662,
      "tick": 8663,
      "vac": 8664,
      "ħrig": 8665,
      "ħrence": 8666,
      "ħdess": 8667,
      "ħyard": 8668,
      "ħbie": 8669,
      "ħheim": 8670,
      "ħitated": 8671,
      "stead": 8672,
      "anth": 8673,
      "ħifer": 8674,
      "ħewhat": 8675,
      "ħabled": 8676,
      "orn": 8677,
      "chronic": 8678,
      "plain": 8679,
      "shots": 8680,
      "recalled": 8681,
      "compounds": 8682,
      "serial": 8683,
      "partly": 8684,
      "evil": 8685,
      "ħaware": 8686,
      "feather": 8687,
      "accomm": 8688,
      "Aniston": 8689,
      "obtained": 8690,
      "ħennis": 8691,
      "1910": 8692,
      "possession": 8693,
      "visible": 8694,
      "convoy": 8695,
      "stands": 8696,
      "ħattered": 8697,
      "Elect": 8698,
      "patron": 8699,
      "1909": 8700,
      "identity": 8701,
      "armor": 8702,
      "Keamy": 8703,
      "multi": 8704,
      "persp": 8705,
      "painted": 8706,
      "brothers": 8707,
      "towers": 8708,
      "Every": 8709,
      "arrangement": 8710,
      "Formula": 8711,
      "Garc": 8712,
      "Castle": 8713,
      "recovered": 8714,
      "extreme": 8715,
      "seemed": 8716,
      "scientific": 8717,
      "candidate": 8718,
      "Commonwealth": 8719,
      "Jesus": 8720,
      "somewhat": 8721,
      "videos": 8722,
      "accommod": 8723,
      "08": 8724,
      "Gun": 8725,
      "Hun": 8726,
      "Hospital": 8727,
      "Joy": 8728,
      "Mic": 8729,
      "Owen": 8730,
      "Tam": 8731,
      "Type": 8732,
      "Ul": 8733,
      "bal": 8734,
      "cens": 8735,
      "erect": 8736,
      "gross": 8737,
      "hip": 8738,
      "hits": 8739,
      "tone": 8740,
      "ħuv": 8741,
      "ħyer": 8742,
      "ħworth": 8743,
      "ħSA": 8744,
      "theatre": 8745,
      "ħaling": 8746,
      "ħisis": 8747,
      "ħicate": 8748,
      "ħicity": 8749,
      "ħentures": 8750,
      "ħidae": 8751,
      "ħutz": 8752,
      "ħthosaurus": 8753,
      "proceed": 8754,
      "exha": 8755,
      "relative": 8756,
      "schem": 8757,
      "ħachus": 8758,
      "impl": 8759,
      "Fraser": 8760,
      "fled": 8761,
      "Marines": 8762,
      "teach": 8763,
      "acts": 8764,
      "ħannah": 8765,
      "Shakes": 8766,
      "preserved": 8767,
      "Johnston": 8768,
      "estate": 8769,
      "passage": 8770,
      "Conc": 8771,
      "1935": 8772,
      "1931": 8773,
      "1912": 8774,
      "verse": 8775,
      "reduce": 8776,
      "convin": 8777,
      "twelve": 8778,
      "Poland": 8779,
      "footage": 8780,
      "Design": 8781,
      "cycle": 8782,
      "suffering": 8783,
      "Islands": 8784,
      "ħstitution": 8785,
      "hosted": 8786,
      "funds": 8787,
      "Arabic": 8788,
      "ħiques": 8789,
      "absol": 8790,
      "ħgoing": 8791,
      "FIA": 8792,
      "linked": 8793,
      "controversial": 8794,
      "sculpture": 8795,
      "custom": 8796,
      "basketball": 8797,
      "Plunketts": 8798,
      "Elizabeth": 8799,
      "Germans": 8800,
      "Corythosaurus": 8801,
      "Shakesp": 8802,
      "68": 8803,
      "Bal": 8804,
      "Bark": 8805,
      "DC": 8806,
      "Div": 8807,
      "Dyn": 8808,
      "Gib": 8809,
      "Late": 8810,
      "Mand": 8811,
      "Nintend": 8812,
      "Tig": 8813,
      "Wi": 8814,
      "Your": 8815,
      "cart": 8816,
      "divers": 8817,
      "ow": 8818,
      "sessions": 8819,
      "siege": 8820,
      "tailed": 8821,
      "wars": 8822,
      "ħcement": 8823,
      "ħsewhere": 8824,
      "ħuz": 8825,
      "ħbishop": 8826,
      "inaug": 8827,
      "ħelin": 8828,
      "ħilly": 8829,
      "thin": 8830,
      "ħetts": 8831,
      "ħoli": 8832,
      "ħolay": 8833,
      "stayed": 8834,
      "alleg": 8835,
      "prohib": 8836,
      "shut": 8837,
      "ħoven": 8838,
      "income": 8839,
      "context": 8840,
      "integ": 8841,
      "adults": 8842,
      "ħamps": 8843,
      "consc": 8844,
      "defended": 8845,
      "ħificial": 8846,
      "continuing": 8847,
      "province": 8848,
      "expensive": 8849,
      "Allah": 8850,
      "attacking": 8851,
      "1932": 8852,
      "reviewers": 8853,
      "destruction": 8854,
      "debate": 8855,
      "equipped": 8856,
      "Palmy": 8857,
      "circulation": 8858,
      "Anton": 8859,
      "steel": 8860,
      "responsibility": 8861,
      "learning": 8862,
      "blocks": 8863,
      "Hotel": 8864,
      "concerned": 8865,
      "moral": 8866,
      "understand": 8867,
      "composer": 8868,
      "verte": 8869,
      "Special": 8870,
      "incorporated": 8871,
      "Protest": 8872,
      "Peninsula": 8873,
      "Marlborough": 8874,
      "opposite": 8875,
      "ħerogative": 8876,
      "Shakespeare": 8877,
      "Nintendo": 8878,
      "Ak": 8879,
      "Cle": 8880,
      "Sem": 8881,
      "Sweet": 8882,
      "Techn": 8883,
      "gone": 8884,
      "hem": 8885,
      "map": 8886,
      "pushed": 8887,
      "sight": 8888,
      "ħris": 8889,
      "ħyt": 8890,
      "ħgie": 8891,
      "ħpent": 8892,
      "ħput": 8893,
      "ħbody": 8894,
      "ħét": 8895,
      "ħMO": 8896,
      "ħonia": 8897,
      "ħstate": 8898,
      "ħotic": 8899,
      "ħowing": 8900,
      "ħithic": 8901,
      "ħosl": 8902,
      "answ": 8903,
      "shall": 8904,
      "shore": 8905,
      "ħaste": 8906,
      "ħoster": 8907,
      "Channel": 8908,
      "reserve": 8909,
      "agree": 8910,
      "ħarked": 8911,
      "ħinals": 8912,
      "songwrit": 8913,
      "consult": 8914,
      "elabor": 8915,
      "musicians": 8916,
      "governor": 8917,
      "Prof": 8918,
      "willing": 8919,
      "1911": 8920,
      "driving": 8921,
      "ħscop": 8922,
      "classical": 8923,
      "Flight": 8924,
      "Geoff": 8925,
      "1921": 8926,
      "1929": 8927,
      "lowest": 8928,
      "victims": 8929,
      "limit": 8930,
      "Palace": 8931,
      "promote": 8932,
      "crossing": 8933,
      "meetings": 8934,
      "Media": 8935,
      "falling": 8936,
      "rebels": 8937,
      "measures": 8938,
      "renew": 8939,
      "Fei": 8940,
      "Lawrence": 8941,
      "observations": 8942,
      "Patrick": 8943,
      "voted": 8944,
      "throwing": 8945,
      "ħhews": 8946,
      "ħiplom": 8947,
      "Stanley": 8948,
      "occasions": 8949,
      "passengers": 8950,
      "remnants": 8951,
      "Construction": 8952,
      "initiative": 8953,
      "Netherlands": 8954,
      "Free": 8955,
      "Hob": 8956,
      "Link": 8957,
      "Labor": 8958,
      "Nar": 8959,
      "Our": 8960,
      "Rain": 8961,
      "Sand": 8962,
      "Treat": 8963,
      "Wic": 8964,
      "craft": 8965,
      "diet": 8966,
      "hang": 8967,
      "ray": 8968,
      "rum": 8969,
      "raise": 8970,
      "ster": 8971,
      "ħafter": 8972,
      "ħfare": 8973,
      "ħAT": 8974,
      "ħinet": 8975,
      "ħacle": 8976,
      "ħlev": 8977,
      "ħoted": 8978,
      "ħotal": 8979,
      "ħownt": 8980,
      "ħuting": 8981,
      "comments": 8982,
      "ħifies": 8983,
      "ħilled": 8984,
      "ħoceratops": 8985,
      "sees": 8986,
      "praise": 8987,
      "retained": 8988,
      "acclaim": 8989,
      "defences": 8990,
      "161": 8991,
      "obl": 8992,
      "objects": 8993,
      "1962": 8994,
      "returns": 8995,
      "1959": 8996,
      "1938": 8997,
      "ħquez": 8998,
      "ħalky": 8999,
      "Educ": 9000,
      "sky": 9001,
      "involving": 9002,
      "equivalent": 9003,
      "goddess": 9004,
      "Atlanta": 9005,
      "villages": 9006,
      "pitcher": 9007,
      "difficulties": 9008,
      "superior": 9009,
      "strip": 9010,
      "representing": 9011,
      "biography": 9012,
      "Imperial": 9013,
      "Player": 9014,
      "Emperor": 9015,
      "learn": 9016,
      "Queens": 9017,
      "intensified": 9018,
      "purchase": 9019,
      "Pitman": 9020,
      "rhythm": 9021,
      "carrying": 9022,
      "vessels": 9023,
      "Korean": 9024,
      "fixed": 9025,
      "Mega": 9026,
      "Guardian": 9027,
      "batsman": 9028,
      "Cambodia": 9029,
      "global": 9030,
      "unsuccessful": 9031,
      "Stefani": 9032,
      "ħemetery": 9033,
      "García": 9034,
      "67": 9035,
      "86": 9036,
      "AP": 9037,
      "Bang": 9038,
      "Cult": 9039,
      "Eric": 9040,
      "Furt": 9041,
      "Pict": 9042,
      "Raff": 9043,
      "Tro": 9044,
      "U2": 9045,
      "bor": 9046,
      "bone": 9047,
      "covers": 9048,
      "fine": 9049,
      "fold": 9050,
      "pow": 9051,
      "tight": 9052,
      "ħrac": 9053,
      "ħoh": 9054,
      "ħgency": 9055,
      "ħwald": 9056,
      "ħpan": 9057,
      "ħinating": 9058,
      "ħicop": 9059,
      "ħicide": 9060,
      "ħelle": 9061,
      "online": 9062,
      "ħterbury": 9063,
      "ħotton": 9064,
      "ħophy": 9065,
      "ħriev": 9066,
      "ħiform": 9067,
      "ħudes": 9068,
      "exchange": 9069,
      "prol": 9070,
      "ħureau": 9071,
      "cloth": 9072,
      "ħrupted": 9073,
      "union": 9074,
      "commit": 9075,
      "committed": 9076,
      "amino": 9077,
      "reveals": 9078,
      "concerts": 9079,
      "simultane": 9080,
      "collaps": 9081,
      "ħechism": 9082,
      "Canterbury": 9083,
      "periods": 9084,
      "1920s": 9085,
      "ħiterranean": 9086,
      "defeating": 9087,
      "influences": 9088,
      "divisions": 9089,
      "needs": 9090,
      "Mediterranean": 9091,
      "ħspecies": 9092,
      "escort": 9093,
      "Prior": 9094,
      "Enterprise": 9095,
      "accompany": 9096,
      "spirit": 9097,
      "pupp": 9098,
      "narrative": 9099,
      "internal": 9100,
      "camera": 9101,
      "voiced": 9102,
      "behaviour": 9103,
      "Palestine": 9104,
      "Athletic": 9105,
      "Observ": 9106,
      "preferred": 9107,
      "Aerith": 9108,
      "Phillies": 9109,
      "Grammy": 9110,
      "survivors": 9111,
      "resources": 9112,
      "09": 9113,
      "Found": 9114,
      "Hou": 9115,
      "Ken": 9116,
      "Kann": 9117,
      "Má": 9118,
      "Mir": 9119,
      "Mother": 9120,
      "Rugby": 9121,
      "dens": 9122,
      "ju": 9123,
      "rugby": 9124,
      "ħiy": 9125,
      "ħdon": 9126,
      "ħvements": 9127,
      "ħgraf": 9128,
      "ħmath": 9129,
      "ħba": 9130,
      "ħboy": 9131,
      "ħerr": 9132,
      "ħinje": 9133,
      "ħarth": 9134,
      "alter": 9135,
      "ħchang": 9136,
      "conj": 9137,
      "exit": 9138,
      "ħiped": 9139,
      "ħishment": 9140,
      "ħraham": 9141,
      "clock": 9142,
      "Along": 9143,
      "Front": 9144,
      "feed": 9145,
      "deck": 9146,
      "formally": 9147,
      "followers": 9148,
      "else": 9149,
      "operating": 9150,
      "Sports": 9151,
      "Plat": 9152,
      "products": 9153,
      "considers": 9154,
      "USD": 9155,
      "Prog": 9156,
      "arrested": 9157,
      "classic": 9158,
      "McG": 9159,
      "refers": 9160,
      "represents": 9161,
      "covering": 9162,
      "criticised": 9163,
      "doesn": 9164,
      "closer": 9165,
      "Championships": 9166,
      "Markgraf": 9167,
      "tribut": 9168,
      "cruiser": 9169,
      "absence": 9170,
      "feelings": 9171,
      "visitors": 9172,
      "Krak": 9173,
      "normally": 9174,
      "hundreds": 9175,
      "Cathedral": 9176,
      "legislation": 9177,
      "panel": 9178,
      "deployed": 9179,
      "interpret": 9180,
      "dialogue": 9181,
      "proposal": 9182,
      "astronom": 9183,
      "pupils": 9184,
      "kitsune": 9185,
      "Fernand": 9186,
      "Colorado": 9187,
      "Furtado": 9188,
      "Raffles": 9189,
      "Bul": 9190,
      "Bell": 9191,
      "Bath": 9192,
      "Fore": 9193,
      "Hud": 9194,
      "Hok": 9195,
      "Nad": 9196,
      "Nichol": 9197,
      "Satur": 9198,
      "Usta": 9199,
      "Valky": 9200,
      "liber": 9201,
      "option": 9202,
      "pure": 9203,
      "rect": 9204,
      "tank": 9205,
      "ħrich": 9206,
      "ħrine": 9207,
      "ħcements": 9208,
      "ħlec": 9209,
      "ħnal": 9210,
      "ħwick": 9211,
      "ħburn": 9212,
      "ħhol": 9213,
      "ħCC": 9214,
      "ħOK": 9215,
      "ħinally": 9216,
      "ħashed": 9217,
      "ħotype": 9218,
      "stable": 9219,
      "deem": 9220,
      "orb": 9221,
      "choir": 9222,
      "prerogative": 9223,
      "ħishn": 9224,
      "reconnaissance": 9225,
      "enth": 9226,
      "appropri": 9227,
      "manusc": 9228,
      "Comb": 9229,
      "forming": 9230,
      "Sholay": 9231,
      "166": 9232,
      "extent": 9233,
      "ħullen": 9234,
      "annually": 9235,
      "140": 9236,
      "convection": 9237,
      "trading": 9238,
      "ħshore": 9239,
      "skull": 9240,
      "infrast": 9241,
      "biographer": 9242,
      "poorly": 9243,
      "stationed": 9244,
      "satisf": 9245,
      "ensure": 9246,
      "moments": 9247,
      "spiritual": 9248,
      "drums": 9249,
      "displays": 9250,
      "muscaria": 9251,
      "ħonomy": 9252,
      "Dominican": 9253,
      "NHL": 9254,
      "researchers": 9255,
      "submarine": 9256,
      "reconstruction": 9257,
      "DAG": 9258,
      "illeg": 9259,
      "overwhel": 9260,
      "Ustaš": 9261,
      "Bat": 9262,
      "Cape": 9263,
      "Dor": 9264,
      "Jenn": 9265,
      "Pan": 9266,
      "Rom": 9267,
      "dream": 9268,
      "dinosaur": 9269,
      "jun": 9270,
      "lose": 9271,
      "lists": 9272,
      "nav": 9273,
      "saves": 9274,
      "sunk": 9275,
      "wings": 9276,
      "ħlife": 9277,
      "ħvati": 9278,
      "ħzac": 9279,
      "ħDH": 9280,
      "ħinian": 9281,
      "ħowiec": 9282,
      "streets": 9283,
      "frame": 9284,
      "ħateau": 9285,
      "orbit": 9286,
      "ħrous": 9287,
      "intense": 9288,
      "abund": 9289,
      "Alb": 9290,
      "ħricted": 9291,
      "ħeph": 9292,
      "transition": 9293,
      "15th": 9294,
      "1940s": 9295,
      "obst": 9296,
      "extension": 9297,
      "Who": 9298,
      "belt": 9299,
      "Blood": 9300,
      "useful": 9301,
      "modified": 9302,
      "entitled": 9303,
      "driven": 9304,
      "Record": 9305,
      "posted": 9306,
      "influential": 9307,
      "divor": 9308,
      "Corpor": 9309,
      "Richmond": 9310,
      "Maggie": 9311,
      "Mexican": 9312,
      "steam": 9313,
      "injuries": 9314,
      "memory": 9315,
      "withdrew": 9316,
      "FIFA": 9317,
      "understanding": 9318,
      "dramatic": 9319,
      "bombard": 9320,
      "purposes": 9321,
      "essential": 9322,
      "dynasty": 9323,
      "doubt": 9324,
      "util": 9325,
      "ħniowiec": 9326,
      "Wiś": 9327,
      "02": 9328,
      "78": 9329,
      "900": 9330,
      "Benn": 9331,
      "CBS": 9332,
      "Holl": 9333,
      "Mach": 9334,
      "Rest": 9335,
      "Sn": 9336,
      "Ut": 9337,
      "VII": 9338,
      "bed": 9339,
      "diplom": 9340,
      "gard": 9341,
      "loyal": 9342,
      "pack": 9343,
      "rated": 9344,
      "rates": 9345,
      "ridge": 9346,
      "saved": 9347,
      "tests": 9348,
      "ħlie": 9349,
      "ħhang": 9350,
      "ħzi": 9351,
      "ħker": 9352,
      "ħori": 9353,
      "ħilst": 9354,
      "ash": 9355,
      "ħctions": 9356,
      "plane": 9357,
      "shipping": 9358,
      "ħiang": 9359,
      "spoke": 9360,
      "herd": 9361,
      "enfor": 9362,
      "ago": 9363,
      "otherwise": 9364,
      "ħteenth": 9365,
      "Ark": 9366,
      "ħugosl": 9367,
      "writings": 9368,
      "formal": 9369,
      "subspecies": 9370,
      "actual": 9371,
      "interests": 9372,
      "ammun": 9373,
      "Show": 9374,
      "101": 9375,
      "123": 9376,
      "ħinson": 9377,
      "severely": 9378,
      "155": 9379,
      "113": 9380,
      "parish": 9381,
      "installed": 9382,
      "generated": 9383,
      "exposure": 9384,
      "helicop": 9385,
      "Parvati": 9386,
      "restrict": 9387,
      "listen": 9388,
      "1928": 9389,
      "engines": 9390,
      "demand": 9391,
      "originated": 9392,
      "excess": 9393,
      "factors": 9394,
      "Federal": 9395,
      "watching": 9396,
      "Township": 9397,
      "crosses": 9398,
      "informed": 9399,
      "burned": 9400,
      "Moore": 9401,
      "materials": 9402,
      "chess": 9403,
      "persu": 9404,
      "ħitzer": 9405,
      "Portugal": 9406,
      "Israeli": 9407,
      "ħrestling": 9408,
      "suggesting": 9409,
      "loan": 9410,
      "Norway": 9411,
      "apparently": 9412,
      "Massachus": 9413,
      "journalist": 9414,
      "happened": 9415,
      "picture": 9416,
      "chairman": 9417,
      "Jacob": 9418,
      "jackrab": 9419,
      "Réunion": 9420,
      "circumstances": 9421,
      "Barker": 9422,
      "Education": 9423,
      "Wiśniowiec": 9424,
      "ammunition": 9425,
      "Massachusetts": 9426,
      "84": 9427,
      "92": 9428,
      "Bab": 9429,
      "Baker": 9430,
      "Cec": 9431,
      "Eaton": 9432,
      "Gen": 9433,
      "Gary": 9434,
      "Gwen": 9435,
      "Hamp": 9436,
      "Having": 9437,
      "Kim": 9438,
      "Kev": 9439,
      "Lith": 9440,
      "Mun": 9441,
      "Roth": 9442,
      "Sid": 9443,
      "Sab": 9444,
      "Yugosl": 9445,
      "bull": 9446,
      "citing": 9447,
      "festival": 9448,
      "ori": 9449,
      "wine": 9450,
      "ħean": 9451,
      "ħwestern": 9452,
      "ħhist": 9453,
      "ħheera": 9454,
      "ħaled": 9455,
      "ħilation": 9456,
      "ħurse": 9457,
      "ħacter": 9458,
      "ħroc": 9459,
      "Intern": 9460,
      "ħaku": 9461,
      "ħoko": 9462,
      "climate": 9463,
      "resign": 9464,
      "relie": 9465,
      "unlike": 9466,
      "ħryce": 9467,
      "disaster": 9468,
      "partially": 9469,
      "ħinder": 9470,
      "movements": 9471,
      "Branch": 9472,
      "paras": 9473,
      "carved": 9474,
      "operate": 9475,
      "generals": 9476,
      "Space": 9477,
      "impossible": 9478,
      "starlings": 9479,
      "Guide": 9480,
      "latex": 9481,
      "McL": 9482,
      "eleven": 9483,
      "phr": 9484,
      "ħurricanes": 9485,
      "1927": 9486,
      "causes": 9487,
      "Westm": 9488,
      "victories": 9489,
      "survive": 9490,
      "ready": 9491,
      "Death": 9492,
      "mixture": 9493,
      "predomin": 9494,
      "Minor": 9495,
      "Ministry": 9496,
      "Khand": 9497,
      "burning": 9498,
      "Wilson": 9499,
      "merch": 9500,
      "memorial": 9501,
      "transportation": 9502,
      "ħrorist": 9503,
      "layer": 9504,
      "cancer": 9505,
      "administr": 9506,
      "institution": 9507,
      "instruments": 9508,
      "overseas": 9509,
      "thousand": 9510,
      "shells": 9511,
      "behavior": 9512,
      "Historic": 9513,
      "departure": 9514,
      "RAAF": 9515,
      "Swedish": 9516,
      "substantial": 9517,
      "resistance": 9518,
      "ħekāntavāda": 9519,
      "Kannada": 9520,
      "Ustaše": 9521,
      "Az": 9522,
      "Budd": 9523,
      "Bureau": 9524,
      "Celt": 9525,
      "Dig": 9526,
      "Eagle": 9527,
      "Fall": 9528,
      "Last": 9529,
      "Lang": 9530,
      "Midge": 9531,
      "Masters": 9532,
      "Reb": 9533,
      "Sans": 9534,
      "Soon": 9535,
      "dangerous": 9536,
      "eat": 9537,
      "icon": 9538,
      "mamm": 9539,
      "turb": 9540,
      "ħrquez": 9541,
      "ħpson": 9542,
      "ħjo": 9543,
      "ħEC": 9544,
      "ħHg": 9545,
      "ħinent": 9546,
      "ħinery": 9547,
      "inher": 9548,
      "ħurst": 9549,
      "wasn": 9550,
      "bearing": 9551,
      "ħagas": 9552,
      "ħeston": 9553,
      "heat": 9554,
      "shop": 9555,
      "spend": 9556,
      "spores": 9557,
      "resigned": 9558,
      "afterwards": 9559,
      "ħweight": 9560,
      "commem": 9561,
      "ħobile": 9562,
      "subst": 9563,
      "ħonto": 9564,
      "amateur": 9565,
      "supporters": 9566,
      "178": 9567,
      "instance": 9568,
      "musician": 9569,
      "advis": 9570,
      "models": 9571,
      "1933": 9572,
      "restored": 9573,
      "marry": 9574,
      "listing": 9575,
      "deliver": 9576,
      "temples": 9577,
      "windows": 9578,
      "Perfect": 9579,
      "Police": 9580,
      "ħencing": 9581,
      "compete": 9582,
      "Simpson": 9583,
      "looks": 9584,
      "techniques": 9585,
      "electronic": 9586,
      "squadron": 9587,
      "sequences": 9588,
      "engineers": 9589,
      "thinking": 9590,
      "interesting": 9591,
      "tribute": 9592,
      "establishing": 9593,
      "autom": 9594,
      "documents": 9595,
      "Howe": 9596,
      "Veronica": 9597,
      "ħASA": 9598,
      "interaction": 9599,
      "opportunities": 9600,
      "struggle": 9601,
      "rooms": 9602,
      "premiered": 9603,
      "beautiful": 9604,
      "Stewart": 9605,
      "Gilbert": 9606,
      "congreg": 9607,
      "nickn": 9608,
      "ħowntown": 9609,
      "Márquez": 9610,
      "Khandoba": 9611,
      "Bah": 9612,
      "Cob": 9613,
      "Dak": 9614,
      "Fel": 9615,
      "FRE": 9616,
      "Ira": 9617,
      "Jr": 9618,
      "Las": 9619,
      "Osc": 9620,
      "Ra": 9621,
      "Sle": 9622,
      "Vul": 9623,
      "Wag": 9624,
      "Wright": 9625,
      "bord": 9626,
      "mode": 9627,
      "pale": 9628,
      "sale": 9629,
      "vast": 9630,
      "ħiac": 9631,
      "ħuable": 9632,
      "ħmate": 9633,
      "inHg": 9634,
      "ħisler": 9635,
      "ħasm": 9636,
      "ħoma": 9637,
      "ħomura": 9638,
      "ħroit": 9639,
      "Then": 9640,
      "forcing": 9641,
      "ħulating": 9642,
      "ħopl": 9643,
      "ħapse": 9644,
      "prove": 9645,
      "ħears": 9646,
      "notably": 9647,
      "tra": 9648,
      "perce": 9649,
      "desert": 9650,
      "attrib": 9651,
      "remember": 9652,
      "conservation": 9653,
      "ħegov": 9654,
      "ħologies": 9655,
      "165": 9656,
      "elsewhere": 9657,
      "minimum": 9658,
      "artwork": 9659,
      "artificial": 9660,
      "designs": 9661,
      "adventure": 9662,
      "offices": 9663,
      "1957": 9664,
      "Herz": 9665,
      "helmet": 9666,
      "storms": 9667,
      "myst": 9668,
      "reprod": 9669,
      "21st": 9670,
      "ħapping": 9671,
      "situated": 9672,
      "readers": 9673,
      "cyt": 9674,
      "ħucky": 9675,
      "recognised": 9676,
      "achieve": 9677,
      "check": 9678,
      "Toronto": 9679,
      "properties": 9680,
      "coins": 9681,
[...]
